#ifndef WEIGHTS_HIDDEN_LAYER_2_TO_OUTPUT_LAYER_H
#define WEIGHTS_HIDDEN_LAYER_2_TO_OUTPUT_LAYER_H

static const unsigned int weights_hidden_layer_2_to_output_layer[] = {
	0x3eb29a70, 0x3f556d25, 0xbfa90338, 0xbeac77c1, 0x3f88b01b, 0xbf72aa96, 0xbfd1c83b, 0xbf55bc06, 0x3eed67bf, 0xbfd993a4, 0xbe868d22, 0xbf9e2468, 0xbf658e45, 0x3e6707af, 0x3f35ff7b, 0x3eefc917, 0xbf2c294d, 0xbde7b4a0, 0x3e95496b, 0x3eaa94fc,
	0xbefa32b3, 0xbf9cb187, 0x3ed8ac20, 0x3ee5095b, 0xbff45164, 0xbf508bbc, 0x3ed319e9, 0xbeeebcde, 0x3ee7f3f1, 0xbeb9fccb, 0x3fa506f0, 0xbe44ba33, 0x3f12f781, 0xbf9bd738, 0xbed61963, 0xbf6a88dd, 0x3eb94180, 0xbece7dd0, 0xbedb97ae, 0x3e71d201,
	0x3eb31a4c, 0x3f3768a0, 0x3ef89ab2, 0x3d5140e2, 0xbf0ab8d9, 0xbe10c388, 0xbed44719, 0x3f08e700, 0x3eb80ac4, 0x3e9fb47c, 0xbf55e432, 0x3ea1d471, 0x3eee7206, 0xbd5cdd7a, 0x3ccc0c4c, 0xbdeca996, 0x3b745ee0, 0x3f1f7c6c, 0xbe499f4d, 0x3efbef7c,
	0xbefa831e, 0xbe233562, 0x3eb76ce9, 0xbf1c9de4, 0xbec39aad, 0xbe879ec9, 0x3f0e1708, 0x3e470d43, 0xbeb76d12, 0x3f20f0e6, 0xbf24f23e, 0x3e80659a, 0x3ebb7329, 0xbfa81c6b, 0xbd0de065, 0x3ed2c010, 0xbf61ebc5, 0x3ebb7ae9, 0x3f250ad2, 0x3eec3145,
	0x3ea0b9cc, 0xbf92d0e7, 0xbf8c3312, 0x3ecab197, 0xbf8caf1e, 0x3ede489e, 0xbfd73921, 0x3ec81179, 0xbfbb15cf, 0xbd14f3d9, 0xbf0c513e, 0xbfc15607, 0xbe44fc2b, 0x3ebe6b18, 0xbef5107b, 0xbf641dc6, 0x3eef7cf0, 0xbe98549d, 0xbf85cd97, 0x3ee269a5,
	0x3ed5fa71, 0xbf0b7145, 0xbe16e8d0, 0x3ee2f2eb, 0xbf14778d, 0xbed3b3de, 0x3f0d760d, 0xbe3dddc6, 0xbed19849, 0x3f1df544, 0xbea24035, 0xbe94c2b8, 0xbf2502ee, 0xbdd08843, 0x3f23a8f6, 0x3ed69dcc, 0xbf44e139, 0xbee635d1, 0x3f24cedb, 0xbecd27dc,
	0x3ee2063f, 0xbda8558e, 0xbf89842e, 0x3ec15796, 0x3f76ff18, 0xbe50f054, 0xc02aeeaa, 0x3ef09a16, 0x3e8b7d4b, 0x3f04f792, 0x3b1c936a, 0xbfec2314, 0x3eb2f9a7, 0x3e643e54, 0x3f22e67d, 0xbf29c34c, 0x3eb2b200, 0x3f1d619e, 0xbfc147bb, 0xbfa0c750,
	0xc0002251, 0xbe8b0fa8, 0x3ee7401e, 0xbf6faf42, 0xbf445608, 0x3ee167fe, 0x3eaf35d2, 0x3f0ecb62, 0x3e9b54d5, 0xbf72970d, 0xbeca886d, 0xbe21b5d9, 0x3e82f83a, 0x3e9ed9f6, 0xbfb3920c, 0x3eff4328, 0x3ea0dc5b, 0xbf03b256, 0x3f0749a1, 0x3f0307bc,
	0x3ee0e09d, 0xbf59f677, 0x3ec675ce, 0x3ed0ec90, 0xbfc6a107, 0xbf46e951, 0xbf32d8d4, 0xbf8237a4, 0xbf3de0f7, 0xbf2977f5, 0xbee0f84d, 0x3ea08508, 0xbf29cfc1, 0xbf824dc1, 0x3e0ac34c, 0xbfaab263, 0xbf73c3e7, 0xbf3d450b, 0x3e113f4b, 0xbfa0c780,
	0xbed43461, 0xbf258e95, 0xbf93ecb9, 0xbef845ad, 0xbf864996, 0x3ed99cd7, 0x3ef10124, 0xbfe09c7f, 0xbf55b7fd, 0x3e505a91, 0xbf92b02f, 0x3e429f8e, 0xbfbdf56c, 0x3eaa2a95, 0xbf2bda44, 0xbe950b22, 0x3ec94b9b, 0xbf0c5f7f, 0x3f1768c1, 0xbfac5adc
};

#endif /* WEIGHTS_HIDDEN_LAYER_2_TO_OUTPUT_LAYER_H */
