#ifndef WEIGHTS_INPUT_LAYER_TO_HIDDEN_LAYER_1_H
#define WEIGHTS_INPUT_LAYER_TO_HIDDEN_LAYER_1_H

static const unsigned int weights_input_layer_to_hidden_layer_1[] = {
	0x3c615e28, 0xbc27b128, 0x3d00eba4, 0xbadbeb40, 0x3d2cb0b4, 0x3d17bd0e, 0x3da54086, 0xbba129d0, 0x3d5565d4, 0x3dadd3bc, 0x3daa37e0, 0xbcdf39c2, 0xbd277aa8, 0x3c5accb3, 0x3d920a1e, 0xbd1558c4, 0x3d6d60d4, 0xbc099fc0, 0xbd4df082, 0xbae3cec0, 0xbcf22076, 0xbd8cffef, 0x3b4cba80, 0x3ca87ff8, 0xbdacf0c8, 0xbd90f4c9, 0xbdab04f0, 0xbd3ea5b7, 0xbd8c5764, 0xbb424b20, 0xbc74cb70, 0xbd67e6b4, 0xbbda30e8, 0xbd9970bc, 0xbe095eaa, 0xbe4e3aaa, 0xbeccbd6b, 0xbe9112f1, 0xbe21ec96, 0x3d97b2d7, 0xbce5bbef, 0x3c8e35a3, 0xbca12d08, 0xbf183040, 0xbf12e5c9, 0xbf112f31, 0xbd593b03, 0xbf03d245, 0xbf266283, 0xbe9d0e3d, 0xbf0b3ad1, 0xbe993458, 0xbd6ea5fc, 0x3c1d0c00, 0xbc9229bc, 0x3d035336, 0xbc6b5688, 0x3cff2f28, 0x3d117e10, 0xbf617d0a, 0xbf483647, 0xbdaac3c9, 0xbea5e82e, 0xbe88ccbc, 0xbf1b2f7f, 0xbf54ba73, 0xbf8a29de, 0xbf83d956, 0xbf8d1c82, 0xbf5436f2, 0xbf6e18e4, 0xbef695ac, 0xbf119ba8, 0xbe59449c, 0xbec13120, 0xbeea479a, 0xbee183f6, 0x3e61dcad, 0xbd2d8dd4, 0xbf5aa028, 0xbeceed2d, 0xbe034cb2, 0xbd90f937, 0xbd319463, 0x3d93fda2, 0x3ce1db1c, 0xbbffa5f2, 0xbf7e3f90, 0xbfa3461e, 0xbed02707, 0xbf199d31, 0xbfad3798, 0xbffa72b5, 0xbfe61556, 0xbf3f94d5, 0xbf490d34, 0xbf960415, 0xbfca4c0f, 0xbfde2ac1, 0xbfaf828a, 0xbf071fa2, 0xbec6b1db, 0xbec73d87, 0xbdc2c04c, 0xbe0cad33, 0xbe3dd16d, 0x3e0ab354, 0xbdafceab, 0xbe0c4ebd, 0x3d44b623, 0x3d6f62f0, 0xbbcdd2a0, 0x3d86dd3c, 0xbd67d7d2, 0x3cea7691, 0x3e300ec2, 0x3d65e1af, 0xbe0a7205, 0xbef5feec, 0x3d75b4a4, 0xbee15989, 0xbf28206c, 0xbf06b495, 0xbdce3659, 0x3b7e0016, 0x3d8a04c2, 0xbede6847, 0xbeb1eca9, 0x3dc15f97, 0x3d9abf88, 0xbe3a3250, 0x3e1ff86f, 0x3e4bd2ff, 0x3e18ace1, 0x3e2cc993, 0x3ef01a34, 0x3f1bcfc7, 0xbe50d3be, 0xbf314f9d, 0xbc06edf0, 0x3d5eacd4, 0x3d01e73e, 0xbdd5a52a, 0xbeaf4a32, 0xbefd2e03, 0xbe2a0f02, 0xbd9874bc, 0x3e8c52b5, 0x3e3a9238, 0x3eb2382f, 0xbc3b9cd1, 0xbd497e71, 0xbdcc03d1, 0xbdbe0607, 0xbe7702f4, 0xbd5aed3e, 0xbe7f20aa, 0xbdde37ea, 0x3c81ef7b, 0x3c5d89b3, 0x3dac6548, 0x3d8d21fd, 0xbea09549, 0x3dab9766, 0x3e256fc2, 0xbe021021, 0xbf5942c1, 0xbe2dcc16, 0x3c7df690, 0xbdadd5d3, 0x3ea21d13, 0x3df1c20a, 0xbd4c88bf, 0x3e2faf9c, 0x3b96bdaa, 0xbe4d19f6, 0x3e182477, 0x3e116877, 0xbe46d102, 0xbc935d43, 0xbdb9c46c, 0xbe192d6b, 0x3c6c3aa0, 0xbe2ef159, 0xbe4b495f, 0x3df54289, 0xbd3fd5f1, 0x3cf3426e, 0xbe3bc1be, 0x3e3d94d4, 0x3e06a7a6, 0xbcc944de, 0xbd86afa6, 0x3d12ecb2, 0xbdb21e97, 0xbf13d11a, 0x3e4dd21f, 0x3e21e26c, 0x3f013982, 0x3e8a4513, 0xbe81d9cb, 0xbe18ff20, 0x3e5ea448, 0x3e191d31, 0xbd6928cc, 0xbd4992b8, 0x3db975ea, 0xbce30570, 0xbbbef9b7, 0xbd2a9c4e, 0xbe1c2c41, 0xbdb700c9, 0xbe09caae, 0x3d376a8b, 0xbd9edeca, 0x3cefa371, 0x3cdd99e2, 0x3da6c78b, 0x3e5163c6, 0x3e507ea5, 0xbddc137a, 0xbe6d06e0, 0xbd3ce9b8, 0xbed7539f, 0xbf762276, 0x3ef4ffcb, 0x3e9017ee, 0x3d52fee2, 0x3e064002, 0x3d9bbb59, 0x3e5ca1dd, 0x3d6d62b4, 0x3dca2cd6, 0x3e5dbe80, 0x3c93c398, 0x3dbb1820, 0x3d09fd3e, 0xbdd32653, 0xbde00d5c, 0xbe77082f, 0xbdc4566c, 0xbd0a6793, 0x3dbfe518, 0x3c5fbbf8, 0x3bb2fa62, 0x3d23ba02, 0xbe26a405, 0x3e149b10, 0xbd3e7784, 0x3e1250ba, 0xbede0731, 0xbe7cba29, 0x3e64d3a8, 0x3f153380, 0x3e1ff0f1, 0xbd830b0a, 0x3e2360ea, 0x3e81437d, 0x3caaa859, 0x3d8ed51c, 0x3d8e74f8, 0x3e0833b8, 0x3e0b3f6c, 0xbcf6d22e, 0x3dc6e31f, 0xbd051045, 0xbe58d3cb, 0xbe498355, 0x3d55daef, 0x3e3865e0, 0x3c519a22, 0x3c4bdd17, 0x3d5d0b97, 0xbc9be2ec, 0x3dba8c66, 0xbd8fa62f, 0xbe99edc4, 0xbe2f32c9, 0xbf9afd0a, 0xbdf86244, 0x3e9b2c7e, 0x3f02cecb, 0x3e8e452a, 0x3dd7e419, 0xbdb2e8c9, 0xbde04f71, 0xbd2a333d, 0x3da226a1, 0xbd264411, 0x3de08143, 0x3da5cd7d, 0x3de233ed, 0x3e596457, 0xbe90a948, 0xbeeed541, 0xbd5b55df, 0x3e23c12d, 0x3d90cdc6, 0x3dee1f29, 0x3df4a98c, 0x3c9a9b8e, 0xbd72d609, 0x3dd57911, 0xbd530fe2, 0x3cfdf9de, 0x3dcb7eab, 0xbf6f68de, 0xbd326c22, 0x3e8b263d, 0xbd8343e8, 0x3f24b809, 0x3ee2365a, 0xbe2b6ae2, 0x3d93550e, 0x3c5e0207, 0x3d93eb52, 0xbd00d8ab, 0x3d2d7fc3, 0x3e0496b0, 0x3da9e07c, 0x3ed5f9e9, 0xbe7fc30b, 0xbeeeaaf0, 0x3eaadd72, 0x3de085d0, 0x3e818a58, 0x3dbd6bd5, 0x3ddf7321, 0x3dee6f00, 0x3d5de32e, 0x3d1b5ebc, 0xbf1564c5, 0xbeaa9679, 0xbda410b7, 0x3c596cd9, 0xbdf00eaa, 0x3e32a90e, 0x3f0b7dad, 0x3f2abdff, 0x3e77ca6c, 0xbe832ac9, 0x3db17a6f, 0x3e0a5622, 0x3e057863, 0x3dde67a0, 0x3d808a59, 0x3d711c18, 0x3e0a9274, 0x3e716ccd, 0xbf04ee51, 0xbec5c2e7, 0x3e5b3686, 0x3dcc61e5, 0x3daeaf55, 0x3d93d512, 0x3e19e3af, 0xbcda48d3, 0x3d8d90d3, 0xba1e3dfd, 0xbefe9ef1, 0xbea592eb, 0xbf257c22, 0xbcff11a2, 0x3d51aeea, 0x3d1fd7bc, 0x3ddc5f02, 0x3eafdd09, 0xbebfa5a5, 0x3d2161fa, 0x3db4f3ec, 0xbd87e0fc, 0x3d8ddbcd, 0x3d8a2796, 0x3db2f04f, 0x3e0ad070, 0x3e8c4318, 0x3d81e47d, 0xbf2909e6, 0xbd9e4676, 0x3d6addd6, 0x3e626892, 0x3e29f926, 0xbd131da1, 0xbe23742c, 0x3e3aef48, 0x3ddd3778, 0xbd721d5b, 0xbf61475a, 0xbf109512, 0xbe753f16, 0x3e10e023, 0x3d481c02, 0xbe204906, 0x3eaab353, 0xbe245045, 0x3cd42d35, 0x3ec9de72, 0x3e203135, 0x3cc4c582, 0x3de45832, 0x3cfb49ae, 0x3d491953, 0x3dc7986c, 0xbd92c6dc, 0xbe60bb0d, 0xbe6fe9b2, 0xbdde327a, 0xbdd4e0e7, 0x3e25cb16, 0x3e1df902, 0x3e384dad, 0x3e66cff6, 0x3e888702, 0xbc58e098, 0x3e21c218, 0xbee71810, 0xbefb929e, 0x3d297036, 0x3eb1026b, 0xbd2b47c2, 0x3de3cb42, 0x3e69310e, 0xbf1014ec, 0x3e967365, 0x3db7a7e1, 0xbdb6c822, 0x3dbb3b8d, 0xbd807102, 0xbc2f8495, 0xbcc38e8f, 0x3de61aa5, 0xbc260ed4, 0xbdabb6cf, 0xbe7955cf, 0xbddb0334, 0x3e19601b, 0x3e0f15b0, 0x3e60e1ee, 0x3d09098c, 0x3e7145ae, 0xbb10dff2, 0x3dcd9564, 0x3ed676bd, 0x3c6f2494, 0xbf2a0e00, 0xbf0bb99a, 0xbf0847f8, 0x3eec24d5, 0x3f03fc54, 0xbca28e94, 0xbf203a65, 0xbebd0fbb, 0xbd10ae6e, 0xbde94f0b, 0xbc0ea48f, 0x3da06d36, 0x3e2b41a7, 0xbd932218, 0x3dc147e8, 0xbdad4b53, 0xbe469565, 0xbe5c0046, 0xbd98a305, 0x3e61f9cc, 0x3db34b14, 0x3dbb5130, 0x3e1f1f2c, 0x3cdf68db, 0x3e213851, 0x3e20a2fe, 0x3ca0025b, 0x3c91e104, 0xbe673fb7, 0xbf193195, 0xbf6a8163, 0xbf4042f4, 0x3cdaabcc, 0x3e6e9fbb, 0xbe2985ba, 0xbeb8b019, 0x3d9c476c, 0xbdb28828, 0x3c52c9b2, 0x3c0990d9, 0x3da832ca, 0xbbf587fa, 0x3e1a0b7f, 0xbe6c894c, 0xbeb75ba4, 0x3df5c798, 0x3c3faab7, 0x3e454a9e, 0x3be60dd0, 0x3d6b0260, 0x3e4b802d, 0xbc9aebd9, 0xbb9936a9, 0xbe19e4b3, 0xbe04c336, 0x3d50f538, 0xbeeaa4c1, 0xbd7fa58a, 0x3eb1f732, 0xbf80d781, 0x3f00f4c2, 0x3e4b0007, 0xbcbe6e1f, 0x3db3ec09, 0xbed8fb4f, 0xbe1d23ca, 0x3d0daf91, 0x3df10f34, 0x3bfbd759, 0xbce0b893, 0xbe2a9f3b, 0xbe6452b8, 0xbe6102fc, 0xbd1e4368, 0x3d9ac783, 0x3d3abe65, 0x3e94d801, 0x3db5a892, 0xbded0660, 0xbbf4d5ae, 0xbd98e9b8, 0x3d26dd4a, 0xbe6b19d0, 0xbed6466a, 0xbf571102, 0xbf3259c2, 0x3f0ce953, 0x3ecf2ade, 0xbcded246, 0x3f4037ab, 0x3e273187, 0x3f4db6cf, 0xbd1e4363, 0xbc0b9251, 0xbd0f1ca5, 0x3d8555cf, 0x3d7d8ab4, 0xbe4d2211, 0xbeb40a86, 0xbda96d79, 0xbe833d49, 0xbe027f1c, 0x3e637d5b, 0xbcc4af1f, 0xbe93900d, 0xbd8f8ef0, 0xbe0b446b, 0x3d869009, 0xbe8f737d, 0xbd2ff99f, 0xbf1b1965, 0xbe91aafe, 0xbf06666a, 0xbe6b4b32, 0x3e8ba5c5, 0x3d0c796c, 0xbd3e7594, 0x3ec18fae, 0x3e80d7e4, 0x3ea9ec84, 0x3e81b1be, 0x3dd7b99b, 0xbe9ab0a1, 0xbec7d8be, 0xbed7ce34, 0xbeedecc1, 0xbe82a9de, 0x3e26e13d, 0xbd6d2504, 0xbe182d23, 0xbdd8307f, 0xbcb4ae88, 0x3ddd25d4, 0x3dc427bb, 0xbe1e2047, 0xbd766030, 0xbeec52a2, 0xbd336031, 0xbe43920c, 0xbe99db8c, 0xbe359e60, 0x3cf1ce69, 0x3d8d2c8e, 0xbd2749ee, 0x3cdd15b8, 0xbcb6337a, 0xbda794cd, 0x3ee1928f, 0x3d4568b9, 0xbe79ead0, 0xbf0471c8, 0xbf4f1f2e, 0xbeda4d0a, 0xbdefa63b, 0xbdb15a98, 0xbe442534, 0xbe07c351, 0xbc844fe5, 0xbe4d4aab, 0xbdd1c1bf, 0xbdfb8f6e, 0xbe5743cc, 0xbe03db15, 0xbd5611ec, 0xbc916ab3, 0xbe19994d, 0xbc4e2c08, 0xbd992ea6, 0x3e720fb9, 0xbd741635, 0xbfa3d5ef, 0x3dad3ef3, 0x3b1607a0, 0xbd02ed00, 0xbe19cb3b, 0xbe8d8fcc, 0xbeae88b0, 0xbe6eac93, 0xbeb9f3b8, 0xbf02fb65, 0x3ddf6e24, 0xbcaa8e42, 0xbb9fc3a2, 0xbd8b2c77, 0xbd6b05eb, 0xbe5c9165, 0xbe12de74, 0xbe132c82, 0xbe50ad36, 0xbc79d9c5, 0x3d17f996, 0xbdf7ed4d, 0x3d0f76ea, 0xbe8d3618, 0x3d6dde75, 0xbe2a3620, 0x3e0aa558, 0xbdf520b8, 0xbf6c13c6, 0x3d7f6d99, 0xbce1e350, 0x3d33a710, 0xbe305f56, 0xbea2f7f1, 0xbf26c3b4, 0xbee5e7da, 0xbeae66e3, 0xbdc2aeec, 0x3cdb0f4e, 0x3d45e769, 0x3d476552, 0xbbd01d32, 0xbdef64ea, 0xbd50bf17, 0x3cab07c8, 0xbc63d3cd, 0xbe053dcc, 0xbe0d029d, 0x3d57deda, 0xbda3cd2d, 0xbce52d14, 0xbe291db9, 0xbd8960b7, 0xbe078062, 0x3d82f37f, 0x3da2087e, 0xbe71bf0d, 0xbd65e2cd, 0xbd15aaaf, 0xbcba36ac, 0x3ee86940, 0xbc8cf53b, 0xbcbad413, 0x3e3b27f6, 0x3ba26bbb, 0x3db0b1bf, 0x3e069882, 0xbd0fa9c2, 0xbccc57bb, 0xbe2e6722, 0x3c6889e6, 0xbdf585de, 0xbe69a71d, 0xbd9b3164, 0x3c6cdfcb, 0xbdc44d85, 0xbe74af32, 0xbcbf32dd, 0x3e4e9e69, 0xbdd17ba6, 0x3e19bfe3, 0xbdda068b, 0xbeb3714a, 0xbe7aed9b, 0xbe721e7a, 0xbbe9dd30, 0xbd6ff671, 0x3da53d50, 0x3e0ab8c3, 0xbdd38bd6, 0xbdea3df4, 0xbeb1864b, 0x3e3f476e, 0xbe853ac5, 0xbe19cca3, 0x3dc90ffe, 0xbe12c617, 0x3d5c3064, 0xbc46d3a2, 0xbc29dc40, 0xbd50a44b, 0x3d8483f5, 0xbdc8a9c7, 0xbdc3116e, 0xbd4e175c, 0xbed9f933, 0x3d8c8b70, 0xbd61d213, 0xbe35f7c1, 0xbe85c606, 0xbefc3381, 0x3ea08b9a, 0xbe6ea3f1, 0xbd3b390b, 0xbd364cb3, 0x3d4a1450, 0x3a383c80, 0xbd3916a5, 0x3eec97ea, 0xbd99e7ff, 0x3e4521ff, 0xbbc72d69, 0x3d93db26, 0x3e3caa6d, 0xbc541e0a, 0xbd9e6d8f, 0xbe494b9a, 0x3ccb26d3, 0x3d9517ff, 0xbe8eed2a, 0x3cbebd82, 0x3c982fe9, 0xbd0b88ec, 0xbe0d5331, 0xbe847b62, 0xbdedebcc, 0xbeb7e925, 0xbe095770, 0x3f075958, 0x3e6194e0, 0x3c78ae88, 0xbd346acb, 0xbd2e3147, 0xbdad48c2, 0xbd9a62ac, 0xbb54f0e0, 0x3db47163, 0x3e2c466b, 0x3e43e645, 0x3d1c3d98, 0x3e14654f, 0x3ea54bd7, 0x3e73afe2, 0xbd70109b, 0x3d2bc809, 0x3f1f030c, 0x3e5ea8e1, 0x3ef922ea, 0x3edd95f7, 0x3f6c1d0c, 0x3f2a7472, 0x3da3b0f4, 0x3e48796e, 0x3f808cd9, 0x3f34f534, 0x3f092e96, 0xbda28fe7, 0xb9272e00, 0x3d6bf788, 0xbd1873b3,
	0xbc5174d8, 0x3d0ea018, 0x3c701ac0, 0x3cf33dac, 0x3da74768, 0xbd959e04, 0x3c99f9ec, 0xbbbf01e0, 0x3c5a6840, 0x3b349400, 0x3d2de5b8, 0x3d921a44, 0xbd0c862f, 0x3da53ce2, 0x39906500, 0xbd0a5c13, 0x3d06a5a6, 0x3bbdd860, 0x3d0cbc6e, 0xbd7e067c, 0xbc2d8a98, 0xbcd70c2e, 0x3c9eb560, 0xb9e04e00, 0x3d44925c, 0x3d3d0150, 0xbd694082, 0xbcdd12b4, 0xbd855dee, 0xbd0b0a9f, 0xbda11e01, 0xbd32fd34, 0xbd8c7894, 0x3d93fc50, 0x3d3c22d8, 0xbd08594c, 0xbc3c7f00, 0x3cff3338, 0x3d987ed0, 0x3d25889c, 0xbc5fa3a8, 0x3db10919, 0xbd79d278, 0xbdb0385a, 0xbdbb603e, 0x3d0982f6, 0xbdaacfe6, 0x3d93a624, 0x3dac767e, 0x3d305168, 0x3c4413d8, 0x3bfee500, 0xbd6f7b20, 0xbc8bc3ec, 0x3d90106a, 0x3d8240fa, 0x3da28b26, 0x3d1a5138, 0x3d43519c, 0x3cd6b878, 0x3b6f11a0, 0xbd89f3c0, 0xbd547b4a, 0xbd9013ba, 0xbda05418, 0x3e0617b3, 0x3d94351b, 0x3cd2e948, 0x3c988f80, 0xbc579c89, 0xbed523cf, 0xbeb890f0, 0xbed290d6, 0xbea92543, 0xbeba1ab8, 0xbea676b2, 0xbd86a0fe, 0xbdb1a152, 0x3d0d6b0e, 0xbd9a383e, 0x3d51b135, 0x3d2d56d4, 0xbd014e56, 0x3ca18c50, 0xbd03d395, 0x3d00f21e, 0x3da723d0, 0xbd5a6d7e, 0x3e9bfb43, 0x3f518a23, 0x3eb8194d, 0xbe948e5a, 0x3d921285, 0x3e194946, 0xbe71c688, 0x3df89dab, 0x3e22be9d, 0xbd8bd8b1, 0x3e4dd632, 0xbe752f49, 0xbda412ef, 0x3ee44402, 0x3cc3ad6c, 0xbe9bd2ab, 0x3e9d681a, 0xbebb4d52, 0xbe70a9b9, 0xbf18244f, 0xbc9e4e0a, 0x3ce16e76, 0x3d3e86cc, 0x3c8dff28, 0xbdad7fbb, 0x3eb91b69, 0x3f0d13b8, 0x3f385124, 0x3ee78cec, 0x3f43e78e, 0x3e733dd4, 0x3d1d964b, 0x3ef1fb2a, 0x3e0470ba, 0x3e0bf5e2, 0x3dda6415, 0x3d93fdaa, 0x3e946d9f, 0xbd2143ca, 0x3d01e55e, 0x3ddd1018, 0xbdc6c73f, 0x3e555dd9, 0x3cb550fc, 0xbdb9a363, 0xbe16c992, 0x3b8c5a8b, 0xbeb1ea99, 0xbe6c67e8, 0x3c2c7cec, 0xbdb93db8, 0xbc76dc78, 0xbce2b044, 0x3da677e4, 0x3e07f3a0, 0xbc7a86fe, 0x3da19b59, 0x3e3dd045, 0x3d8f9b17, 0xbe2c4ffb, 0xbc8166d8, 0xbd051c80, 0xbce78b82, 0x3e088d35, 0xbe39b27c, 0x3e0df57f, 0xbe23d9c9, 0x3e1c9885, 0x3d2b407f, 0xbd092d3a, 0x3ca1c0ad, 0x3e51fafb, 0xbe65f06a, 0xbee4e03a, 0xbea43f40, 0xbe710ea0, 0xbf6b4b1f, 0xbd95a64f, 0x3d557c8a, 0x3c51bbd8, 0x3d6333c8, 0x3f3a947a, 0x3ea1f82f, 0xbc3ac0fb, 0x3eca621d, 0xbd59ef09, 0x3d909c6c, 0x3e03f9bc, 0xbbb26a88, 0x3df908e6, 0x3e2ffecd, 0x3d5a59a4, 0x3d5da1b4, 0x3e85dc8d, 0xbda364cf, 0x3dc4b73f, 0x3b05e2b9, 0xbddaef81, 0x3d8220ea, 0xbe1b01c3, 0x3cb8b09d, 0x3d403ce4, 0xbe45d3e9, 0xbdcc86cc, 0xbe133306, 0xbdfef16f, 0x3cb717b8, 0x3d98ec6d, 0x3d5ca450, 0x3f9a583f, 0xbe3b400f, 0xbeb56239, 0x3e13d2cf, 0x3e57d11e, 0x3dd6b4f8, 0xbdba6d45, 0xbcdf5687, 0x3c9aa6d9, 0xbd48552f, 0x3dc01141, 0xbd2ee76c, 0xbd3d94be, 0x3deafef9, 0xbd9d14e3, 0xbcac3d25, 0xbc33c37f, 0xbc95aef2, 0xbd11102a, 0x3d70ac25, 0xbdf27837, 0xbe83c1b3, 0xbb8a033d, 0xbea24e5c, 0xbea841f0, 0x3c86e7cb, 0x3da441d7, 0xbd22a7fe, 0xbe7712f6, 0xbef5e636, 0x3e8353be, 0x3f00a1d7, 0x3dd2b71b, 0xbebf8d58, 0x3e8c9a54, 0x3d248f39, 0xbdb0376b, 0x3e59bc5b, 0xbd327c39, 0x3dcf6a51, 0x3da1c427, 0xbd76b6f0, 0x3ddb50ff, 0x3b9ee01d, 0x3da96520, 0x3e0b2ac1, 0x3cec8f92, 0x3e15b697, 0xbc354892, 0xbdc40565, 0xbf3c2906, 0xbebe3d00, 0xbe6a1db1, 0xbc2c9ea3, 0xbd2a55b4, 0xbcf5b434, 0xbe81ed80, 0x3df3c715, 0x3f24f13b, 0x3e896d29, 0x3b87fc35, 0x3e341987, 0x3ec9e24e, 0x3e5a6cf9, 0x3e1c0b5e, 0x3d683d44, 0xbf1242cc, 0xbed6a645, 0xbeaedd1b, 0xbdb74f45, 0x3dbb9882, 0x3d82dc66, 0x3cadb95d, 0x3e3f134a, 0xbcf2ce10, 0x3deae6e2, 0xbe071c8d, 0xbe252ff4, 0xbf1149e4, 0xbf56cc10, 0xbe95611a, 0xbe6edfc0, 0x3da92c04, 0x3c8d3700, 0xbe7e0cac, 0x3df795d4, 0x3f6d8328, 0x3e277f2e, 0x3e299425, 0x3ea431a0, 0xbe3fafee, 0xbe688a37, 0xbf8028f2, 0xbf532a39, 0xbec1e439, 0xbe6ec9d2, 0x3e424fac, 0x3e05168e, 0xbd857d1a, 0x3eaae696, 0x3d91e11d, 0x3b370cc2, 0x3e348049, 0x3e4b3ac1, 0x3e62add8, 0xbe0102b0, 0xbe825c25, 0xbeaf4716, 0xbc14450a, 0x3c613c42, 0xbcd93c18, 0xbd63f710, 0x3e416dcf, 0xbee7825c, 0x3f12cf42, 0x3daef5ba, 0xbdf0f406, 0xbe4cc936, 0xbf67e97f, 0xbf8e3d29, 0xbf0dd99d, 0xbe4bf891, 0x3d86fae2, 0x3e6a32ae, 0x3d26f4c4, 0x3e3554a4, 0x3e21bf50, 0xbd944ae2, 0x3d69798c, 0xbb86b303, 0x3e866974, 0x3e77880f, 0xbbb2b16b, 0xbeb1a172, 0xbe4737cd, 0x3ab59bfa, 0x3f83dc27, 0xbd1cd55f, 0xbd4bc268, 0xbc929ed2, 0x3d7cd46e, 0xbe480685, 0xbec97f20, 0xbeee7289, 0xbf274802, 0xbf1fe83d, 0xbeebb01b, 0xbe80a538, 0x3eb5cd87, 0x3e6691ff, 0x3df413cb, 0x3d7cc503, 0xbbf4c10a, 0x3e7f78ba, 0x3e038d88, 0xbbb43851, 0x3dde3fe3, 0x3de90bab, 0xbec24251, 0xbd730b5f, 0xbe963444, 0xbf023360, 0xbec763eb, 0xbc733d61, 0x3f4db947, 0xbd76aa24, 0x3d539390, 0x3cedf9b4, 0xbcd1cc43, 0xbe7e6ea8, 0xbe99c66a, 0xbf723758, 0xbf2c8538, 0x3da1bcbf, 0x3d4e764b, 0xbdaab488, 0x3e0e7579, 0x3d973f0d, 0xbdef12ce, 0x3d9d4a5e, 0x3e7d53ab, 0x3de44aba, 0x3c940ea9, 0x3dfad2fe, 0x39ff8f24, 0x3d47e3cc, 0xbe3012b2, 0xbf0df86a, 0xbe1be55b, 0xbf00c24b, 0x3eccc2ba, 0x3d817a44, 0x3e04f7d4, 0xbd8dab32, 0xbea61c5e, 0x3d64326c, 0x3ee5b839, 0x3e151b22, 0xbeb71a3e, 0xbf276d08, 0xbe72db39, 0xbd6f5ab4, 0xbe94af27, 0x3e436f01, 0xbdccca7b, 0xbe383df4, 0xbdf58406, 0x3d2dd29d, 0x3e1934ec, 0x3e208c63, 0x3db05533, 0x3d98f45d, 0xbd51905e, 0xbe3c4422, 0xbdf485d3, 0x3d600404, 0x3e7dbf5b, 0xbd280409, 0x3d92b684, 0x3e0805e3, 0x3e433b53, 0xbeb0b408, 0xbe943002, 0x3cfc4311, 0x3e9454b5, 0x3ee2c634, 0x3d20cf05, 0xbe889017, 0xbe8259a8, 0xbc1a1275, 0xbe9ce6eb, 0xbe8a99a5, 0x3e236cc3, 0xbdef075e, 0xbb9b70f1, 0x3dc2d32f, 0x3dc27000, 0x3e39ac00, 0xbca8cb14, 0xbdca7922, 0xbe23cbcc, 0xbdadfa77, 0xbd575173, 0x3e531ad0, 0x3e42c3c1, 0x3df2d74d, 0x3f0dc32f, 0x3e2862ad, 0xbe8a56c0, 0x3e872fce, 0xbcf7cba2, 0x3c6903b7, 0x3f11e3a0, 0x3f279fee, 0x3eea44bf, 0xbe02148b, 0xbbf42f3a, 0xbe9381f5, 0xbe9875a4, 0xbe099abe, 0x3db4f931, 0x3d9c8c0b, 0x3d9b5640, 0x3e4be602, 0x3eb3b6a1, 0xbcd360d5, 0xbd6f884f, 0xbce30e65, 0xbdbb4446, 0x3dceae2b, 0x3ce1fbd0, 0x3cf7ba11, 0x3de62a58, 0xbcad0a46, 0x3d88825f, 0x3f25ce85, 0xbe587691, 0xbd168b82, 0xbd6b7851, 0xbd240fcb, 0x3f473821, 0x3ebf0d1e, 0x3e7bd942, 0xbece3346, 0xbe1a44c6, 0xbeef4bd3, 0xbe3f3cfe, 0xbf03b333, 0xbf649401, 0xbf56680c, 0xbf37974a, 0xbf058ec0, 0x3d044f15, 0xbdebfb3a, 0xbe6fc880, 0x3dac5d9a, 0xbde153ef, 0x3e0296cb, 0x3e0a3ad3, 0x3c28fa36, 0x3db9c56d, 0x3e894192, 0xbd8d904a, 0xbb9ffe3e, 0xbf8534f9, 0xbe816d62, 0x3dac8004, 0x3e8e31ac, 0x3f1c7e44, 0x3f47e97b, 0x3ea69b01, 0xbdefc6e2, 0x3ec0b64c, 0x3e0d641a, 0x3e22f147, 0x3dfd085b, 0xbdbbeabf, 0xbecaf845, 0xbf41bce0, 0xbfa9cbd3, 0xbf6ee966, 0xbebdd575, 0xbe321284, 0x3e1fc62a, 0x3dc8c5b4, 0x3dfeed77, 0x3dbe6b26, 0xbd8d0ce1, 0x3e64c506, 0x3e27fba6, 0xbed0db34, 0xbec19e96, 0xbf65ea2f, 0xbe524c05, 0xbd1693e6, 0xba46ed3e, 0x3edc66fd, 0xbecb3784, 0x3db70a4c, 0xbda7b2a1, 0x3e339783, 0x3e40ce24, 0xbd76d270, 0x3d35c7bd, 0x3c227b34, 0x3db1d7cf, 0x3d929a22, 0x3dcf195a, 0xbd811247, 0xbd8e5f90, 0xbe757eb8, 0xbb766eb3, 0x3da20b83, 0x3d633cfa, 0x3cc8af79, 0xbb0530c0, 0x3d8e46d8, 0xbdb29ac7, 0x3cfbda3e, 0xbec8d83d, 0xbe210cf5, 0xbe2ca691, 0xbd3fe0c3, 0xbd84de0e, 0x3f2476df, 0xbe40db9d, 0x3efd1e36, 0x3d2fe207, 0xb9e2624e, 0xbc3debcf, 0xbda9c144, 0x3cf71a98, 0x3e076631, 0x3d6f8ec7, 0x3e220319, 0xbceca4bb, 0xbd65654d, 0xbe06b357, 0xbdcd0a15, 0xbe24af8d, 0xbe1765da, 0x3dbf6e52, 0xbd7344b7, 0x3daeb2b5, 0xbd1f2aaa, 0x3c8281d9, 0xbda85480, 0xbd8625c8, 0xbe0ea070, 0x3e719a8e, 0x3da1b3e0, 0x3d8f59ba, 0x3f607cad, 0x3e22158a, 0xbdf9968b, 0x3bf96c85, 0xbdae310a, 0x3d32e5b6, 0x3bba33e9, 0x3bf498e3, 0xbe90603f, 0xbcece439, 0xbbbabfa7, 0x3dbc0f86, 0x3dd02fce, 0xbd652085, 0xbdd61a87, 0xbe1dc301, 0xbdac3d1d, 0xbcc104e8, 0x3d0c1ffd, 0x3d4514ee, 0xbe0bfbd3, 0xbe64af21, 0xbf1306b4, 0xbeef2f80, 0xbe1e6b1b, 0x3e887938, 0x3d864e46, 0x3d99d26a, 0x3e9e361c, 0xbd43a548, 0x3e326499, 0x3cdfa73e, 0x3e3c3009, 0xbd144218, 0xbe181614, 0x3e1f755b, 0x3d5d1217, 0x3dfb8cf0, 0xbd3a24be, 0xbe03b7d9, 0x3d4e153d, 0xbdb1d8e0, 0x3e320189, 0x3c196467, 0xbe20e483, 0xbe0f990b, 0x3d1bf67c, 0xbe026438, 0xbdaaa56d, 0xbe6a21ff, 0xbef510c5, 0xbf9302a6, 0x3bd7a75a, 0x3eda96bc, 0xbbcc16f0, 0x3bbe7460, 0xbd4f587c, 0x3fb10a3b, 0x3eadb1f9, 0x3e4b83f5, 0x3e863e3a, 0xbc8826c4, 0x3d24595a, 0xbd00a3ae, 0x3cdfc455, 0x3d830d32, 0x3e6ba79a, 0xbd7aac2c, 0x3cc4f78c, 0xbe06f4cb, 0x3e1c193f, 0x3d0b791f, 0xbde81241, 0x3e2d4310, 0x3e16a8c1, 0xbe98f77d, 0x3e5e722f, 0xbee740f1, 0xbf334b0f, 0xbe811fe1, 0xbeab1569, 0x3ef67a79, 0xbd085220, 0x3bf145c0, 0x3d2674ac, 0xbee2cfbf, 0xbd7e7f8f, 0x3ed79b5e, 0x3eb5a1e8, 0x3e2ba6b1, 0x3eadc423, 0xbaddb058, 0xbdca91fe, 0x3e6f1dea, 0x3de5b923, 0xbd093065, 0xbd466333, 0x3cacbe74, 0x3c758d48, 0xbe64a476, 0x3eafb2fe, 0xbdd56333, 0xbe87fd2a, 0xbe35ea0f, 0x3d60993c, 0x3daa55e0, 0x3d9d59b3, 0xbe322ad4, 0xbd64f45b, 0x3c168d38, 0xbd6a0023, 0xbc287000, 0x3c2f4158, 0x3eb18363, 0xbed7325b, 0x3ef24de7, 0x3f026934, 0x3d45db89, 0x3e0fdaa6, 0x3e8dfc96, 0xbe52a311, 0xbd3662a3, 0xbdc159da, 0x3dd4db4a, 0x3d8f538c, 0xbd2fc6f6, 0xbca6986a, 0x3dae7206, 0xbe73168c, 0xb987b1ae, 0x3ee891bc, 0x3e4213e8, 0xbe9ca869, 0x3da60bd7, 0xbe538aa2, 0xbd5a959e, 0xbd5567a5, 0x3d65f51c, 0xbd847a54, 0x3d2f3820, 0x3d90f928, 0xbd73058a, 0x3e1343ed, 0x3ea5e7c2, 0x3de7b0d6, 0x3e1d912c, 0x3f1f8c4f, 0x3e131ef3, 0x3d916069, 0xbeb6d054, 0xbf52631e, 0x3e21b11a, 0x3e986abf, 0xbf6390fc, 0xbd95f154, 0xbece9e2b, 0xbf37bd49, 0xbd5b7879, 0x3d1db56c, 0x3e32130e, 0x3e85174c, 0x3e22ffea, 0x3d5a539d, 0xbac74880, 0x3cb16974, 0xbd889fda, 0xbd758427, 0x3d9f1cfe, 0x3d3ed40c, 0x3d08ce86, 0xbd85ea49, 0xbd8ff496, 0xbd475e0f, 0xbd128f3b, 0x3cfef958, 0x3e515386, 0x3e5c8e1f, 0xbc8f35f8, 0xbdbf7830, 0xbd1ad96e, 0xbe97ea61, 0xbe9f219a, 0xbe88e575, 0xbdf91769, 0xbdda3945, 0xbe363bc9, 0xbe24ffc6, 0xbe39885c, 0xbd1dc14d, 0xbd7e0c03, 0xbd48513d, 0x3d884ef8, 0xbd099464, 0x3cbff970, 0xbc2d56b0,
	0xbd13df15, 0x3c984be4, 0x3d7a4800, 0xbd904a90, 0xbd4fc5b3, 0x3d91641c, 0xbd86df66, 0x3d2a3084, 0x3d2b36fc, 0x3c586880, 0x3d5c13dc, 0xbc6a9730, 0xbd0a8d54, 0x3c62d8f3, 0x3db0164d, 0xbd64379b, 0xbd9392c0, 0x3d5a4ed8, 0x3d4904fc, 0xbccb7642, 0x3d9ff19a, 0xbd9af090, 0x3d85b64a, 0xbd923d1f, 0x3d1b19f6, 0xbc500e98, 0x3da61b52, 0x3b5e5de0, 0xbd028342, 0xbcddf13c, 0xbd3b6d54, 0x3d851a70, 0xbcf3482a, 0xbcccde75, 0xbb989147, 0xbd9820ae, 0x3d24158f, 0x3c7876df, 0xbd38165d, 0xbcd9fe7a, 0x3dd4430d, 0x3d41049d, 0xbe51b5e9, 0xbda3f9aa, 0xbca04909, 0x3d9b31d8, 0x3d2470e5, 0xbd99a23f, 0x3cf23c2c, 0x3d784f8a, 0xbd682232, 0xbd8434d2, 0x3d855912, 0xbcd8489c, 0x3d72cb30, 0x3c2ddd58, 0x3c6d2760, 0xbc99a644, 0xbbf7d7b0, 0x3daeb54f, 0x3d30c641, 0x3d9023e7, 0xba65498b, 0xbda2a1a4, 0xbdb20c8d, 0xbe3c909f, 0x3e10e021, 0x3ef616ee, 0x3dfd6c06, 0xbeaa8299, 0xbf4e1012, 0xbee3ea73, 0xbe884025, 0xbc84becb, 0x3f0848d9, 0x3e86c3e3, 0x3d8da065, 0xbdc45814, 0x3d23aa80, 0x3e983fdf, 0xbd84ed8b, 0xbcc45257, 0x3ce0669c, 0xbd692b68, 0xbd91e079, 0xbd80ecdf, 0xbd28edd6, 0xbd559127, 0x3e731c18, 0x3e96b896, 0xbe83698d, 0xbd1752eb, 0xbe52644a, 0xbe223101, 0xbe6f517b, 0xbe46c129, 0xbdbe2d9e, 0xbe89bb89, 0x3e197d58, 0x3deae7bb, 0x3d340ae1, 0xbe65df6c, 0xbd3e1cee, 0xbdd89bfa, 0x3e813116, 0x3dcad437, 0x3c888d92, 0xbe6b0f82, 0x3ee2c844, 0xbf2b439f, 0x38ebedd7, 0xbc4a8198, 0x3d397904, 0x3d862a09, 0x3e974094, 0x3df78cf6, 0xbd201609, 0xbe14d541, 0x3e54ffb1, 0x3e95077b, 0x3e2c293d, 0xbb9ed104, 0x3cbbf35a, 0x3e81a2c5, 0x3e1a6bd5, 0x3d8fdca0, 0xbe2bfefa, 0x3e226f1a, 0x3dd1785f, 0xbe2bf39c, 0x3cb884c5, 0x3dd8b041, 0xbdf07d10, 0x3e80c9a7, 0x3e4e8aa4, 0xbeaf08e5, 0x3e14d4c8, 0xbcad9104, 0x3f0c908c, 0x3da9f93c, 0xbd9360e2, 0x3d9ce4e2, 0xbd88cb33, 0x3f018046, 0x3e8ddbcf, 0x3e120c7e, 0xbdc82c7d, 0xbd44a081, 0x3e106d47, 0xbe1e3e4e, 0x3d733bef, 0x3de38d1c, 0xbddc325c, 0xbdea428e, 0x3d0aec2f, 0x3e0794ab, 0x3e6c12e6, 0xbd650f5b, 0x3e1ba6c7, 0xbc5caa24, 0x3b94636b, 0xbe53f687, 0xbaf1ba2c, 0x3de1d6cb, 0xbd198a31, 0xbd0fb2ea, 0x3d8701d4, 0x3dfbd675, 0xbd8384cc, 0x3f064130, 0x3da472aa, 0x3ef72710, 0x3e4e02af, 0x3e3a811b, 0xbcbde530, 0x3e355bbd, 0x3c95d4c0, 0x3b3f2b28, 0x3e048304, 0xbc9e4e0e, 0x3d9d0025, 0x3dc02e94, 0x3d6ecf19, 0xbe6b404c, 0x3e2bdb58, 0x3cbcd67e, 0x3c5febc1, 0x3d26a92f, 0x3da79da3, 0x3e193595, 0x3d730075, 0x3e8486cf, 0x3eb73de8, 0x3ef1cb34, 0x3e94875a, 0x3f5dd861, 0x3bb52028, 0x3f8437c7, 0x3d4c4189, 0xbe0fcac6, 0xbe57bc87, 0x3eaad148, 0x3d50ea31, 0x3cc20ecf, 0xbd162f04, 0xbc841db5, 0x3d4fedb4, 0x3db6e7f0, 0xbc7bba48, 0x3cff541d, 0x3dede182, 0xbce4b618, 0x3d5f448a, 0x3d8b6c22, 0x3e46261c, 0xbdc65271, 0x3e342182, 0xbe34b5a2, 0x3e0f0732, 0x3e1dd4cc, 0x3dc94831, 0x3f138a01, 0xbe1073af, 0x3f8a7afc, 0xbd8b054e, 0x3ea14029, 0x3dda3516, 0xbd9df60f, 0x3e27425c, 0xbd7ca845, 0x3d2d83fd, 0xbd14a90d, 0x3d19455e, 0x3c438bf7, 0x3d8c71b6, 0x398799b0, 0x3c3b87ca, 0x3e1c56dc, 0xbd9b6deb, 0xbaad00be, 0x3dd97867, 0xbe184ff7, 0x3d0e7353, 0x3d7d364c, 0x3eb26a33, 0x3e19ba30, 0x3dfaa0c0, 0xbdb94517, 0x3ebcd803, 0x3ea2ac05, 0x3e286618, 0x3f386d5f, 0xbb867198, 0x3e760d21, 0xbefaf4e7, 0x3d3a7e25, 0x3ed9db3a, 0xbe8be813, 0x3e7a6ce2, 0xba15ae6e, 0xbd085f13, 0xbd2987ee, 0xbd063b89, 0xbc0b4567, 0xbe0c693b, 0xbdec1ed1, 0xbd82cc27, 0xbe308778, 0x3dcdb078, 0xbda7de01, 0xbac38afd, 0x3c6179fb, 0xbd1d2836, 0x3e0e46c4, 0x3e8cfea9, 0x3d1fb547, 0x3f1861cb, 0x3f37c8c4, 0xbdaef827, 0x3f33d444, 0xbd0002bb, 0x3deca7f4, 0xbea5264d, 0x3eb8f20c, 0x3db45c72, 0xbdf2cc3e, 0x3e07bb51, 0xbdd4ed07, 0x3c0c451b, 0xbdea1237, 0xbd7bda1a, 0x3c786440, 0x3de1e325, 0x3d80ab60, 0x3e43e786, 0xbe3871c1, 0x3c7efd3c, 0xbd149613, 0xbe3f3736, 0xbe3d1fdd, 0xbe48381b, 0x3e6aee9c, 0x3e6c7c98, 0x3eb224d9, 0x3f761989, 0x3f95966b, 0x3fc0d4fc, 0x3e7d47cf, 0x3c95ab50, 0x3be8e9f5, 0xbeeced56, 0xbd35c144, 0x3c7cd854, 0xbe88b017, 0xbe2857af, 0xbe6f77c0, 0xbdb49270, 0xbd98b519, 0xbd1fda7b, 0xbc82bdd8, 0xbbc4c491, 0x3e23ce0a, 0x3dc331d1, 0x3d244088, 0xbe2b7b82, 0xbd6c2b90, 0x3cc66561, 0xbe3b8682, 0xbf2bed6d, 0xbf1d1023, 0xbf611693, 0xbdd7a54e, 0xbe6bf494, 0x3f3cb657, 0x3f8b0ce6, 0x3b37a7f3, 0xbd6cdca5, 0x3d0ce086, 0xbf11842a, 0xbe966445, 0x3dd7bd3b, 0xbc89a8f5, 0xbdd88da4, 0x3d03c4dc, 0x3c95dc8e, 0xbe19dc52, 0x3d7323fc, 0x3e5d8b7d, 0x3d4527f8, 0x3d80541b, 0x3d85ad6c, 0x3d05875b, 0xbdc1cc45, 0x3c86400f, 0xbdd40297, 0xbeaeeaf6, 0xbd15f095, 0xbf6dfdcc, 0xc00220d3, 0xbfe9cc8b, 0xbf9bbc9c, 0xbf3e6d11, 0xbe31f5c6, 0xbc7b05b8, 0x3d5c7140, 0xbd3001ea, 0xbdf6f051, 0x3eac7f15, 0x3e964c10, 0x3ea41d58, 0xbdffb5b7, 0x3e4c7a4b, 0xbcd9df93, 0x3dd85d01, 0x3db9d937, 0x3d4a9b37, 0x3e48584f, 0x3e929657, 0x3dcd361a, 0xbe092772, 0x3d83729b, 0xbe2ea7a7, 0x3bef7976, 0xbd913c66, 0xbe190e00, 0x3df97285, 0xbf08febb, 0xbf951264, 0xbf9cdffb, 0xbf0d8fbc, 0xbe2b2c86, 0xbd1edeb2, 0x3ed4c152, 0x3ecc8c29, 0x3bbd4e7c, 0x3e0ba5f0, 0x3e4d11ce, 0xbe9fce39, 0xbd44b4c5, 0x3d862b77, 0x3d2a0a36, 0xbcd2ab3a, 0xbdb3ae38, 0xbdda6b65, 0x3dc568b0, 0xbcb9b766, 0x3a818e2e, 0xbdac0d2a, 0xbe302a76, 0xbda86643, 0xbdc98691, 0xbe07091a, 0xbdfbc142, 0x3e99c854, 0x3eeed873, 0x3e630bfd, 0xbf79b8b8, 0xbe555b2a, 0xbe21d4ab, 0xbe41dec3, 0x3ef0cb4c, 0x3e94cf8a, 0x3e66d5b5, 0xbe1b7321, 0xbde52e3a, 0xbf009f90, 0xbe2a683d, 0xbe151d45, 0xbd923330, 0x3cf378c0, 0xbd98d640, 0x3e57d1d1, 0x3e9fbba2, 0x3db99b43, 0xbd82ef01, 0xbd1ff5a7, 0x3bb6bbca, 0xbe264a5f, 0xbe028a9b, 0xbdac6bbb, 0x3e1a71dc, 0x3e1f6871, 0x3d88b86b, 0x3e0c6e04, 0xbf016948, 0xbe457356, 0x3e6f1aad, 0xbd50b6cf, 0x3bf31d4d, 0x3f0004c4, 0xbdb9bc19, 0xb9e4eabd, 0xbd7c4dc7, 0xbe10eca3, 0xbf35913b, 0xbf7cea3f, 0xbf77866e, 0xbed098a3, 0xbdb2b7fd, 0x3e2a8479, 0x3ce93bfa, 0x3df8a2d1, 0xbd93bc99, 0xbd9dde37, 0xbe0ebd1e, 0x3ce99329, 0xbd089b17, 0x3e7ac5e5, 0x3e3fb820, 0xbc018971, 0x3e64ebe7, 0xbdaab9b3, 0x3ed6fd65, 0xbef75157, 0xbea2e6cb, 0xbd5f5960, 0xbd7c732a, 0x3f001dcc, 0xbeacb401, 0x3efde1a9, 0xbead7bbf, 0xbd2411ad, 0xbe5a2843, 0xbf0728c4, 0xbf111396, 0xbfbc9d99, 0xbfd49d0f, 0xbfd5ea6d, 0xbf6e3dc8, 0xbf1bb3f5, 0xbe77d368, 0xbe18c0b8, 0xbdb66594, 0x3a09f1fa, 0x3df7af49, 0x3e43a39a, 0x3de446bb, 0x3dc1f5c8, 0xbd0863b6, 0xbdc20288, 0xbeb279fb, 0xbf1e0e9d, 0xbce29e68, 0xbd221d2b, 0x3d293810, 0x3e84df17, 0xbe3da7e4, 0x3f84f174, 0x3c5eebf2, 0xbc841c7b, 0x3ed791cf, 0x3f08d108, 0x3ee4ad1f, 0x3ca01ace, 0x3db88bc4, 0xbeb6caad, 0xbed1a768, 0xbe2d7af3, 0xbe2f11de, 0xbe1292ea, 0x3e268524, 0x3d96c1e6, 0xbc3ba62a, 0x3e1bf329, 0xbc6fd03e, 0x3e2a7073, 0xbe2c53e0, 0xbd833c92, 0xbbbbdf4d, 0xbe9c1803, 0xba71cbfc, 0xbd538782, 0x3d2b5eac, 0x3e919bc3, 0xbe447950, 0x3f03aeba, 0x3b5f9ea3, 0x3e3a7ca0, 0x3e0e233a, 0x3e116312, 0x3e454577, 0x3e5e529f, 0x3ea61a35, 0x3e100de8, 0x3e92f6e4, 0x3cea46c2, 0xbe89c4ab, 0xbe03b7a9, 0xbdb946f5, 0xbde6b509, 0xba988c7b, 0xbca88bab, 0xbdb36b1b, 0x3e3b2199, 0x3dafa97e, 0x3e810616, 0xbdb3c696, 0xbf18a17b, 0x3dcc9333, 0xbd4d5de7, 0x3dae16b6, 0x3eb06b6f, 0xbedbbfe2, 0x3e545eb7, 0x3e04c6b2, 0x3e36adbd, 0x3e09093c, 0xbe5c0cf5, 0xbbb9abd2, 0x3dcb1330, 0x3e0cfc26, 0x3e59a552, 0xbddc0c46, 0xbd94c454, 0x3c27c344, 0xbdde9361, 0xbe5720e4, 0x3b632c28, 0x3d93fec3, 0xbd7942aa, 0x3cdf51b4, 0xbde3d374, 0x3e64cdd0, 0xbe411bbc, 0x3e0e8316, 0xbf3afc75, 0x3d5a179f, 0x3df89be4, 0xbd7046e9, 0x3f00b9df, 0xbedc41f0, 0xbe3f74cc, 0x3db2588f, 0xbd46515b, 0x3e0180bc, 0x3e9d500d, 0x3e3b3f49, 0x3ddaada1, 0xbd6ace7d, 0x3d81e7c3, 0x3e28c9cf, 0x3dab5466, 0x3df5c61a, 0x3d51495b, 0x3ab9f875, 0xbe033772, 0xbcd4e89f, 0xbd034631, 0x3b08cf40, 0xbdb2afb0, 0xbe576ab1, 0x3e1c449a, 0xbce3c606, 0xbf34341e, 0xbd8b8fe0, 0xbd1b3500, 0x3d810dc6, 0x3ea4e44d, 0xbdcbc35b, 0x3e01346c, 0xbda4d011, 0xbddcf583, 0x3e0268ee, 0xbe48528d, 0xbe488f0c, 0x3b5020b8, 0x3dc0668a, 0x3d85fb85, 0x3d37a34b, 0x3d54c55b, 0x3da306e9, 0x3d92b340, 0xbd4f9596, 0xbde8713a, 0xbe6a5268, 0x3dd78c5f, 0xbd25d248, 0xbe71e41a, 0x3e67b39d, 0x3ed2712c, 0xbf451796, 0xbe2fab80, 0x3da8a25f, 0xbd046e9a, 0x3d754638, 0x3bf27d70, 0x3f88cfd6, 0x3f656d26, 0x3ecc9d55, 0x3ed04c9f, 0x3e55f41a, 0xbd32d5b1, 0xbd2f8c47, 0x3e58b204, 0x3ddfc3af, 0xbc9516ad, 0xbd76da3b, 0x3c85dd7c, 0xbca61427, 0x3dd265d4, 0x3dadff05, 0x3d8aca53, 0x3e43a739, 0xbe20b17f, 0x3dace6c2, 0xbda18b0f, 0xbe67b392, 0xbea6735f, 0x3ec85ddf, 0x3f4407db, 0x3cf167e8, 0x3bd62750, 0xbd523476, 0xbd6d53f4, 0x3e2937e9, 0x3f693186, 0x3f2548a9, 0x3e92b0eb, 0x3d90a027, 0xbd948aca, 0x3bcc14cf, 0x3dbf36f6, 0x3de97a84, 0xbc7269b9, 0x3d6de92d, 0x3d11233d, 0x3e03f55e, 0x3bfbaaf7, 0xbe297f92, 0x3dde87fc, 0x3d926112, 0xbea3817a, 0xbca5f36c, 0xbdf4785b, 0x3e199805, 0xbd68311a, 0xbf07b712, 0xbe430078, 0xbe82ee46, 0xbd98d931, 0x3d94ee38, 0xbcb06b78, 0x3d84839d, 0xbf082c43, 0x3b642afb, 0x3f1ea0dd, 0x3f1d492c, 0x3e7c9df0, 0xbdf410e0, 0x3da4052f, 0x3ddc4735, 0x3e4143ec, 0x3d2301a0, 0x3c16e0de, 0xbcddd126, 0x3d7e2af4, 0x3da7fef0, 0x3e8011bf, 0xbd7ecc85, 0x3cb34113, 0xbecf18e4, 0xbe87d92a, 0xbd64d281, 0xbe9b6a37, 0x3c1d36a5, 0xbd59228b, 0x3db73edd, 0xbb5905c0, 0xbcb0d66c, 0x3da05976, 0xbc49ac68, 0xbda70bc1, 0x3dca5a40, 0x3dba4088, 0x3d8222a6, 0xbd592854, 0xbf572aa4, 0xbeb80676, 0xbe2a0d5e, 0x3d370778, 0x3ed397f6, 0x3ede083d, 0xbc200bb7, 0x3f2f1dfd, 0x3eb54914, 0x3e598d05, 0xbe4fe69e, 0xbdc6c041, 0x3e25a7c6, 0x3e9e1b7f, 0x3f03f4d8, 0x3eeb6b0d, 0xbd9323ce, 0xbd9a0dfe, 0x3d8907da, 0xbb478e20, 0x3d8be7e8, 0x3ce5fc0c, 0x3d117d5e, 0xbd82e2b4, 0x3d48cbf3, 0xbd5dfb6b, 0xbd4978be, 0x3cf733ff, 0x3d90bedb, 0x3c2d2669, 0x3f0f4d60, 0x3f2667ce, 0x3f060e20, 0x3e6076e9, 0xbf094ef5, 0xbedacb54, 0xbd2a1189, 0xbdb6e4eb, 0x3df3dcea, 0x3e2368fd, 0x3d50b7c4, 0x3d647ee9, 0x3d3a728d, 0x3cc2aa80, 0xbda74c6b, 0xbb7721a0, 0x3cc0088c, 0x3da3a114,
	0xbcd6ef5e, 0xbc4eb4f0, 0x3d981e74, 0xbcc86dd0, 0x3cccf2f8, 0xbce374d6, 0xbd148633, 0x3d67cbc4, 0x3da57330, 0xbd1cd3f6, 0xbd8cccf2, 0xbd26258e, 0xbd63cb92, 0x3c0dea6e, 0x3d77288c, 0x3d98897e, 0xbd9e6b52, 0xbd851927, 0x3cbca328, 0x3d588bd4, 0xbd54ec3e, 0x3cdcd51c, 0x3ca7fcac, 0x3c987be0, 0x3d43407c, 0x3d1d0a4c, 0xbd20d3ed, 0xbd844ff2, 0xbd36aa2c, 0x3bf84ee0, 0xbd5ae239, 0xbcb14dd8, 0xbd095296, 0xbc4eb560, 0x3d369d59, 0x3d55ae14, 0xbe408dcb, 0xbe523992, 0xbe9c4921, 0xbeaa8f55, 0xbeb06a43, 0xbeb4b9ef, 0xbe1454a4, 0xbf4755bd, 0xbf485c07, 0xbf3cb09b, 0xbe5c782a, 0xbf39137e, 0xbf36138d, 0xbf40b623, 0xbf1a2d9a, 0xbed616f9, 0x3dabc624, 0x3d18b714, 0xbca0787c, 0xbbf673f0, 0x3d8ab8f0, 0xbd4f0dcd, 0x3da305a6, 0xbf304f5d, 0xbf181efa, 0xbc2ae0fe, 0x3c35ef7e, 0xbdf18184, 0xbe6c9495, 0xbeaead25, 0xbecff108, 0xbed6472e, 0xbe9fecaa, 0xbe9d23aa, 0xbee7daa7, 0xbeddf9a3, 0xbf583baa, 0xbf435e75, 0xbf2f1492, 0xbf437216, 0xbf6910d8, 0xbf789dec, 0xbf2c9e5f, 0xbf386419, 0xbe434751, 0xbe239d47, 0x3d1159a4, 0xbdaf355b, 0xbd2bfd58, 0x3b8d5610, 0x3d8ad02f, 0xbf5f13ee, 0xbf37488b, 0xbf3680ca, 0xbf35aa94, 0xbf88459b, 0xbf91a713, 0xbf34923e, 0xbe84f5ac, 0xbf2ab808, 0xbfc54870, 0xbff3a55b, 0xbfee5dee, 0xbfd45df7, 0xbf9a4558, 0xbf21d7ec, 0xbefb9d08, 0xbf28e7f2, 0xbf0d91fd, 0xbf198e02, 0xbf0165e1, 0x3bebcafd, 0xbe000bd4, 0xbe0cfc47, 0xbe08587b, 0xbd823048, 0x3b8e9a90, 0x3c22b208, 0x3d21b642, 0xbdfce4f5, 0xbec93e39, 0xbcb0dd12, 0xbee38a5c, 0xbf903d81, 0xbf2dc2f1, 0xbeeefce3, 0xbf1969d5, 0xbe3315c4, 0xbcca2a7d, 0xbda3df22, 0xbe2f2f6b, 0x3caa6ea9, 0x3db5e7a2, 0xbc54b079, 0xbd683ea2, 0x3da2f12d, 0xbcc2ecfe, 0x3ddd18b7, 0xbb2dcbeb, 0x3e9cca99, 0xbe66ef46, 0xbea48727, 0xbd0912cd, 0xbe87b20e, 0xbda8acda, 0xbd8fb5c5, 0x3e5427ef, 0xbdba80f2, 0xbe21be89, 0x3f1ddae2, 0x3e24d966, 0x3d1a57b8, 0xbd8520aa, 0xbe33b2dd, 0xbe9fe2cc, 0x3cf45a94, 0xbcbe8e81, 0xbd9bbf8d, 0xbd953234, 0xbd1bf6b9, 0xbe47d629, 0xbe064652, 0xbde06562, 0xbdb0cb2a, 0xbe21e353, 0xbd48a845, 0x3d2abe71, 0xbd1b9e28, 0xbd9a1f6b, 0x3db91472, 0x3cb85650, 0x3e87c7b4, 0xbcfcaa52, 0xbf1b1365, 0xbed6e681, 0xbe5adbaa, 0xbddca91d, 0x3d9d4375, 0x3e29c07d, 0x3e21a9e6, 0x3c07c6ee, 0xbd623ddb, 0xbdb6f573, 0x3e886be4, 0xbd0d3355, 0x3df2ddca, 0x3e1aa163, 0x3d574a41, 0x3d38562f, 0x3d0728ff, 0x3d9d667f, 0x3d98fcbf, 0x3da1ff4a, 0x3dbe445e, 0xbd267314, 0x3d7829bf, 0xbcc459aa, 0x3d3a30a0, 0x3e4f0d58, 0xbd1e69ce, 0xbd669700, 0xbf2e5392, 0xbf00cb95, 0xbe1c28d8, 0xbea0a550, 0xbed54aef, 0xbe8b6c01, 0x3c7b001b, 0xbd498f3f, 0xbdd82bbb, 0x3d06edfa, 0x3b0bef0d, 0x3d71d0c8, 0x3e3c3419, 0xbd84e8d8, 0x3d51a891, 0x3e2d16da, 0x3d7278be, 0xbd6f245b, 0xbbfa106e, 0x3d963443, 0x3d48d9af, 0x3c1ce6e6, 0x3e1c0cb7, 0x3b101a68, 0xbe9f7219, 0x3d91176f, 0xbd35ba54, 0xbf8baf82, 0xbf270629, 0x3dcdd1db, 0xbd356221, 0xbd0ff6c6, 0xbe54e09d, 0xbdb8b8ea, 0xbd36edff, 0x3d877201, 0x3d9d04dd, 0xbbae9f16, 0x3dd20d11, 0x3d1e4045, 0x3db5f51c, 0x3d0ef3b5, 0x3e1d05ab, 0xbd7539ba, 0xbdb82f20, 0x3d08825f, 0xbd79fdc3, 0xbd9d2b17, 0x3d893336, 0xbb90f909, 0xbd16ab0c, 0xbc56951e, 0xbd9b80fa, 0xbdc94194, 0x3ead8ad1, 0xbe4cf963, 0x3d96aca8, 0x3dd27ae7, 0x3cd45297, 0xbd1a82f7, 0x3d5dac66, 0x3e06e09b, 0x3e28abc0, 0x3c3aec45, 0xbd087e91, 0xbbd8f91d, 0xbd760e3f, 0x3bef851b, 0x3dae08fa, 0x3c551ab1, 0x3cb08e81, 0xbd9f4215, 0x3dba5148, 0xbb45c595, 0x3cac9f3a, 0xbcfe723f, 0x3c8c3710, 0xbca49394, 0xbe274b1e, 0x3e6cd980, 0x3cf974dd, 0xbc244195, 0x3f4be925, 0xbdb24b23, 0xbe21b0ce, 0x3e7cc9f2, 0xbe83c8e8, 0xbe78fc15, 0xbdb197db, 0x3dba11ad, 0xbd08f0f8, 0xbd61423a, 0x3dc0a0b2, 0x3b609db6, 0xbdb3259e, 0x3db53980, 0xba2b2c34, 0xbdce9d56, 0xbe1a1333, 0xbdbc6f8e, 0xbe012d98, 0x3d545bf4, 0x3e006e5e, 0xbdf9f188, 0x3c4994a2, 0xbd9f24f1, 0xbe8ca8bd, 0xbd6f6f84, 0x3dd173aa, 0xbec5a5b0, 0x3ecf00af, 0xbe1ebb07, 0xbf37e472, 0xbdb2b330, 0xbea03b2d, 0xbe967be4, 0x3dd3ebb9, 0x3d809261, 0x3d1a0b4c, 0x3e8d7eae, 0x3d614297, 0x3e4395a5, 0x3e0181ac, 0x3d3d9866, 0xbe1f6dfd, 0x3e4316ff, 0x3e2a8d47, 0x3e4a7179, 0x3df2ee99, 0x3e12d476, 0x3d6b9eed, 0x3e945a11, 0xbd987487, 0x3e1a4aca, 0xbeb0ae5d, 0xbeceaf22, 0xbe1d02fc, 0x3e7aafde, 0xbca7da93, 0xbd86e701, 0xbe76390b, 0x3dd6a60a, 0xbe8a749a, 0x3bc2dc96, 0x3e0a2a28, 0x3dfdb53d, 0x3e23387f, 0x3d6c022a, 0xbc4026d4, 0x3d92e447, 0xbd5351fe, 0xbc2ea2bf, 0xbd81f2b7, 0x3de3afae, 0x3e0ccf4e, 0x3e6f7ac3, 0x3dc8cc7f, 0x3df02cef, 0x3e3fc500, 0x3d795c10, 0xbbe7b14b, 0x3ebf08d3, 0x3edbe40e, 0xbee8f275, 0xbe23c333, 0x3d9db955, 0x3c885362, 0x3dfe0dff, 0xbe2847cb, 0xbe6ff47d, 0xbe9031cc, 0x3e49177c, 0x3df9d64a, 0x3e01e757, 0x3e599e74, 0xbd25b570, 0x3e0bcdd1, 0x3caf65ef, 0xbdc42e0d, 0xbd46c9bb, 0x3d297d1b, 0x3e81ed64, 0x3e73d87e, 0x3e634014, 0x3d5615b3, 0x3e0f0f36, 0x3dc9ec1b, 0x3eb98c79, 0x3f00d67e, 0x3e85b74b, 0xbeb7df23, 0xbf3efa9b, 0xbe77c1ac, 0xbe9bbedc, 0xbdcef854, 0xbefab950, 0x3d158398, 0xbeb41056, 0x3d3f9753, 0x3f32f25d, 0xbdbfff91, 0x3cc75af5, 0x3e47063f, 0x3c18639c, 0xbe1c68f8, 0xbe290a58, 0xbdf9f955, 0x3ca7b533, 0x3e5e67d8, 0x3e0be60a, 0x3e8bdd24, 0x3e330057, 0x3e1363d8, 0x3c3dbddb, 0x3e56ee3d, 0x3e3efb01, 0x3dd6763d, 0xbdbeb7fa, 0xbe9c7590, 0xbf2d582a, 0xbecb3cc1, 0xbf6e734f, 0xbd84efef, 0xbeba5456, 0x3ca5b677, 0xbf618340, 0x3e3019f0, 0x3eee2de3, 0xbe03ce5c, 0x3d4fb3dc, 0x3da65e60, 0xbd2fdf21, 0xbdbf1bbe, 0x3dba04f5, 0x3e17fc84, 0x3e3ced7a, 0x3d4a2a90, 0x3d9e38ac, 0x3d6443d1, 0x3dcfa403, 0x3e7ca814, 0x3c8ec644, 0x3cb3c6f8, 0xbd630f65, 0xbe74f66b, 0x3daff7e2, 0x3ca7d72f, 0xbed36623, 0xbecb2b97, 0xbeeb63f4, 0xbdc96a65, 0x3e04b9a0, 0x3c9da0db, 0xbf3365e2, 0xbde3c7fb, 0x3dc3acad, 0x3d04ae38, 0xbdb11fd1, 0x3daced4c, 0x3da2b065, 0x3da2c18d, 0xbdd822ab, 0xbb46525c, 0x3dc88650, 0x3e56b56d, 0x3ddb0969, 0x3e3b25dc, 0x3e3f73a3, 0x3d855c91, 0x3d8f2f92, 0xbe04b739, 0xbe536079, 0xbd50ae2c, 0x3deb2ddc, 0xbc9effcd, 0xbf11e37d, 0xbf3a1575, 0xbf273ef9, 0xbe6ee437, 0xbc0ba958, 0x3d14f0af, 0xbf0827fd, 0xbefcf450, 0xbf0442ea, 0xbe928114, 0xbea77990, 0x3da39a64, 0x3e6446d3, 0x3cc97477, 0x3deb36d6, 0x3d892f6b, 0x3e5579ca, 0x3cfb630a, 0x3d48a8b1, 0x3da9c926, 0x3d336dab, 0xbe8094fd, 0xbe47323d, 0xbe88f770, 0xbe6bfa6f, 0xbdea699d, 0x3d28fc71, 0xbe8fafe5, 0xbf72d1cc, 0xbf78bd1d, 0xbf90a8ae, 0xbe949c24, 0x3f03a084, 0x3dc3c57b, 0xbd53972f, 0xbf2b26b1, 0xbf38664f, 0xbf190d0c, 0xbe72ac95, 0xbe8c974d, 0xbded3cbb, 0xbd550cfa, 0x3d89314c, 0x3e611e71, 0xbd92da1c, 0x3dbc9b46, 0x3e3e5a53, 0xbdcead77, 0xbd9caaf6, 0xbe460941, 0xbe1325f2, 0xbeaa521c, 0xbe570ec2, 0xbe01abfd, 0xbf1a315a, 0xbf4b5d95, 0xbfa2670c, 0xbf0112c6, 0xbf10424a, 0x3de19d6a, 0x3d89299c, 0xbe5c5dc0, 0xbec2ebd4, 0xbf08cb5c, 0xbe213115, 0xbbe40e8d, 0xbc2d2d1b, 0x3d9c6328, 0xbeaa0c8c, 0xbe2bf422, 0xbe8a67f8, 0xbe68b93d, 0xbd7c852a, 0xbe112413, 0xbd9b725f, 0xbd8e7360, 0xbe11e62a, 0xbe23d885, 0xbe133fdf, 0xbe117e78, 0xbe5a1133, 0xbe38862e, 0xbe7aaad9, 0xbf19f681, 0xbf213294, 0xbe1ba2b4, 0xbe45eefc, 0x3b5c677b, 0xbd99f799, 0xbdeb3131, 0xbeb5d02b, 0xbf6a72a6, 0xbf1625e7, 0xbe9916af, 0xbea3111d, 0x3e083929, 0xbe609883, 0xbeb33358, 0xbe96e22c, 0xbe8ffcba, 0xbe8c5328, 0xbe69a348, 0xbe69f7fe, 0xbe01cbe6, 0xbdf1fca6, 0xbd935e81, 0xbe0bf686, 0x3a2a8aa5, 0xbe328e7b, 0xbe3ac26c, 0xbe6de64f, 0xbf026e8d, 0xbe69c7b4, 0xbea72cd9, 0xbeb9351c, 0xbe37ca86, 0x3c05ded1, 0x3d9a49e8, 0xbe0488a8, 0xbf473cf7, 0xbe6e7e16, 0xbe3b574c, 0xbe07991a, 0xbe1190c9, 0xbdc39d0e, 0x3db3d98e, 0xbabab810, 0xbb793948, 0xbd531d41, 0xbe8e2bed, 0xbdd7eba8, 0xbe59278d, 0xbde9d49d, 0xbe7aae59, 0xbe8d6430, 0xbe2aeae7, 0xbdcd804c, 0x3aae348f, 0xbe0d6020, 0xbe4f51e8, 0x3e4f8e76, 0xbec24c59, 0xbfc2b696, 0xbd8c3b36, 0xbcfdec00, 0x3ca22836, 0xbe2c1bd6, 0xbe5e5045, 0xbd1df43a, 0xbdf2000a, 0x3df717f0, 0xbd7ea7e0, 0xbd275373, 0xbdc2264b, 0xbc1e3038, 0xbdcccd38, 0xbb9e3cb4, 0xbcae19a7, 0x3d8a1405, 0xbe04c9c6, 0xbe3ae11e, 0xbd46477b, 0xbdffc850, 0xbe0c27d7, 0xbe77f58d, 0xbdd021fc, 0xbed215cb, 0x3e0645e2, 0x3d877066, 0x3ec6e126, 0xbf05811b, 0x3da5d5e6, 0xbcf5f370, 0x3d7dd5a0, 0xbf501c01, 0xbef091ff, 0xbf4f3239, 0xbe526e32, 0xbe055e0a, 0xbe7ae483, 0x3ddb9367, 0xbcf2e721, 0xbe0c7663, 0xbde80048, 0x3d9c8757, 0x3d1d4724, 0xbd9d49f3, 0xbd0b0910, 0x3d9ee1ed, 0x3d9ce8fa, 0xbdf1564e, 0xbe51a16c, 0xbee36c67, 0xbe04c4cc, 0x3e9d3684, 0x3f09017b, 0x3e6c32f3, 0x3ee91e29, 0xbe094b45, 0xbcbf6eb4, 0x3d1fce3c, 0xbcb776ac, 0xbee8b6f3, 0xbec332aa, 0xbef28691, 0x3d8069eb, 0xbb8fcfe6, 0x3b2c409a, 0xbdf89cce, 0xbdcfba8e, 0x3c34abd6, 0xbe03469c, 0xbe66add3, 0xbd8132f3, 0xbe8cd3e9, 0x3ce88aa1, 0x3cf2a4c5, 0xbe696fc0, 0x3e22c695, 0x3e4d43d3, 0xbd9086b6, 0x3ed82283, 0x3e570145, 0x3ede0a62, 0xbf515c4f, 0xbf20325b, 0xbf062fb9, 0xbd1eb9ee, 0xbd9ce5c8, 0x3d544608, 0x3f0b29c4, 0x3f5f5c78, 0x3e71caf7, 0x3ed78db1, 0xbe81d0a3, 0xbe5e2bc1, 0xbc900c9b, 0xbe1db612, 0xbded2c0f, 0x3bee22ad, 0xbd9b4454, 0xbe2e897a, 0x3c9260a8, 0xbda70674, 0xbddd7a38, 0xbdd5ceb3, 0x3e3192c1, 0x3e140bdb, 0x3f4d15c5, 0x3f1627a2, 0xbe3d478f, 0x3db00e69, 0xbf470868, 0xbcd9b6b0, 0xbf427df3, 0xbb665280, 0xbd99ee41, 0xbda3dfa2, 0xbbac13f0, 0x3f3bac4f, 0x3f07056f, 0x3ef5f18e, 0x3eac42e8, 0xbe0cf371, 0xbdb08983, 0x3e42122d, 0xbd82f95f, 0xbde4383e, 0x3e79a559, 0x3d2a97d1, 0x3ed75032, 0xbc3ed416, 0x3e0b72ae, 0x3e2e8c37, 0x3e1a99f8, 0xbd8ddaaf, 0x3ece97b9, 0x3e339962, 0x3dcb3c60, 0x3eead13b, 0x3f82edb9, 0x3e60eeae, 0x3d867f50, 0x3cd0f4f0, 0xbd921a20, 0x3d96257c, 0xbd03a231, 0xbcd32b4a, 0xbea1765a, 0xbe9dc3b2, 0xbd9516ba, 0x3bb981e4, 0xbe8a6ad3, 0xbddb16a9, 0xbdefaeba, 0xbea9dbaf, 0x3d929e25, 0xbe9026f2, 0x3d619e0f, 0x3dec7f4c, 0x3dac88c8, 0xbdc686b5, 0x3e4751d6, 0xbde6ee09, 0x3e777e11, 0x3e2765e1, 0x3e0964e4, 0xbe838b38, 0xbd5909a5, 0x3d89cb9a, 0xbc6e15d0, 0xbd84d235,
	0xbb8107c0, 0x3d9e24c4, 0x3d981570, 0x3c22a3b0, 0xbd1cd4f5, 0x3cf24a50, 0x3d9e8802, 0xbc2f8f48, 0xbd91f93e, 0xbd4fb52d, 0x3d9adfea, 0xbdb04ca0, 0x3cbc8db4, 0xbdceb660, 0x3ceff477, 0xbd14937e, 0xbc966ff4, 0xbac62040, 0x3d920d62, 0x3d089696, 0x3c448548, 0x3c0f76c0, 0x3d8d7c68, 0xbda54b6e, 0x3cbf8138, 0xbd7127ab, 0xbd52aece, 0x3c60c1e0, 0xbc737298, 0xbd8a8fab, 0x3d9c00ec, 0xbcccc5b2, 0x3c10f8e3, 0x3d9ada93, 0x3dfb2b7b, 0x3e02b5bd, 0x3cab028b, 0x3c8e516e, 0x3d2e17d9, 0x3d5c7eab, 0x3badb026, 0x3e0cdd92, 0x3d8c0312, 0x3ca97365, 0x3ddf5ade, 0x3d21d285, 0x3c404b7b, 0x3cb100e6, 0x3d471900, 0x3d56d10e, 0x3dbbd3ad, 0x3bbca4c2, 0x3d6ffc2c, 0x3d640400, 0x3d9e1412, 0xbd864f1c, 0xbd5990aa, 0x3da05176, 0xbd4f97d2, 0x3d6fbb73, 0xbd4342ab, 0x3c9ced81, 0x3d3c4988, 0xbd74becf, 0x3c32a9ca, 0x3e053beb, 0x3eaf08ef, 0x3ecfd270, 0x3e81e48b, 0xbd42f9b8, 0xbd8b1e35, 0x3d3d0635, 0x3ec87664, 0x3f04fa22, 0x3f5fd871, 0x3f5e3345, 0x3f3327fd, 0x3d9d01fd, 0x3e894c8d, 0x3e1ca29e, 0x3d50216b, 0x3d8eea7b, 0xbbbed2c0, 0xbd092c3b, 0x3d9ed714, 0x3ce839c8, 0x3c14b7b9, 0x3d668f1f, 0x3e83636d, 0x3e9b6609, 0x3e9aeab4, 0x3d1a50cf, 0x3dbfb163, 0x3e38b625, 0xbd9d8fd6, 0x3e24a041, 0xbeaf3645, 0xbf017776, 0x3c6b21ce, 0xbe62811e, 0xbe8f996f, 0x3e668f8b, 0x3e26f274, 0x3e75a667, 0x3e0732bc, 0x3e286b38, 0xbc4074f0, 0xbec7edd8, 0xbe96a3ef, 0x3c9dee98, 0xbb6481d2, 0x3c5cbad8, 0x3d8c9c44, 0x3df97cc6, 0x3d893e26, 0x3ea140a2, 0x3e5a03f3, 0xbe7b2dd7, 0x3e94ff2a, 0x3db6d9b7, 0xbdc5aa7c, 0x3cfeac94, 0x3e8df786, 0x3ee52eb0, 0x3d674e5e, 0x3d15938c, 0x3e21465c, 0x3dd45834, 0xbe34e8d9, 0x3df501ed, 0x3e8985a7, 0x3d6405f9, 0xbe192d33, 0x3e53e0e4, 0x3da85e5f, 0x3ceed7aa, 0x3f3c5f5f, 0x3f6a0a6e, 0x3f7272c2, 0x3b8564d5, 0x3cb43930, 0x3d9dab66, 0x3e10ee2d, 0x3f393f0e, 0xbd8d7d9f, 0xbdb36ffa, 0x3e49647c, 0x3e5f3b32, 0x3d88dd20, 0x3d9d37d5, 0x3dc00fd0, 0x3c9be699, 0x3c92abfc, 0xbdc60d9f, 0x3d5476e1, 0xbd329a02, 0xbd4c5aa0, 0x3bc2a78e, 0x3d436262, 0xbcf69c25, 0x3e3f4b7d, 0x3cc13aac, 0x3ee4b22c, 0x3ea5747c, 0x3e898f30, 0x3ec97531, 0x3e68c648, 0x3f01b6ed, 0x3d9ca330, 0x3ed7012c, 0x3f5f3e2e, 0x3f35392d, 0xbd6bcd84, 0xbe1fcae1, 0x3ddb182a, 0xbe455444, 0x3e0539c2, 0x3dd5b6c9, 0x3d3f9850, 0x3dd38f00, 0x3dfa484d, 0x3e0a3bad, 0x3e1d1411, 0x3e1990a2, 0x3e2dc70f, 0x3e2f8336, 0x3e5e0f47, 0x3a7be55a, 0x3e32b9cd, 0x3e150d4f, 0xbcf5ea02, 0xbd9ca1e9, 0x3ec5c745, 0x3dac174b, 0x3e10a0b5, 0x3f4cf82f, 0x3e074ff1, 0x3f4b1ddc, 0x3f0b8282, 0xbdd49684, 0x3dc2dff3, 0xbe5dfc82, 0x3de21164, 0xbcfd93a5, 0x3e8a335b, 0xbd8380e6, 0x3e0ab5a3, 0x3db57ad6, 0x3e14f1e8, 0x3db111ee, 0x3e03c43c, 0x3df98640, 0x3e090a79, 0x3cb044d4, 0x3d2c5ee1, 0x3d18930f, 0x3e0561f6, 0xbd8ff672, 0xbd2b179a, 0x3dde3d25, 0x3e0fcb79, 0x3f0128b8, 0x3f107929, 0x3f68c4be, 0x3c6375d0, 0x3cb9a1d9, 0xbd450e03, 0xbc49e1ba, 0xbcc97f71, 0xbcc084fc, 0x3c4847a0, 0xbe52dd04, 0xbc2bbd94, 0xbd406f44, 0xbccc143b, 0x39b53bc7, 0x3dc06179, 0x3e0269be, 0x3e0c2480, 0x3df21ac5, 0x3db2c4aa, 0x3dac7107, 0x3d8859e4, 0x3d515fec, 0xbdc2390a, 0x3daf8897, 0x3e49d33c, 0x3d2036fd, 0x3ec94909, 0x3ed47542, 0x3f75cf24, 0x3f282523, 0x3da98b16, 0xbe40cfdf, 0x3c8f8f20, 0x3e1b4cd7, 0x3e756cad, 0xbe77c267, 0x3e387702, 0x3d0020e1, 0xbda5d2ed, 0x3e0d7b5f, 0x3d73b995, 0x3dcb670b, 0xbc6cc6e0, 0x3d81928a, 0x3e074996, 0x3df24e3c, 0xbc3298cd, 0x3da00e27, 0x3a521313, 0x3d842567, 0xbd68a5d5, 0xbe7aacbd, 0x3cfb66db, 0xbec1da07, 0xbcb049ee, 0x3d390771, 0xbe8506f4, 0x3f00e266, 0xbd05c687, 0xbea347bf, 0xbdddbe42, 0x3e60b473, 0x3ca95b9a, 0xbd80b76a, 0x3de57094, 0x3d261ac5, 0x3d3f94c0, 0xbb0fb980, 0x3c9bfaae, 0x3dc173bd, 0xbd869670, 0x3d20c3f4, 0xbe14894a, 0xbe5c74c0, 0xbe17c77c, 0xbe07d157, 0xbe193e55, 0xbe3f43d9, 0xbe3b5f5e, 0xbe9f5827, 0xbe9a4cc8, 0xbefd091f, 0xbebd6630, 0x3cdac95e, 0x3f70d5b3, 0x3f14cc3a, 0xbd11e961, 0xbd1e8f58, 0x3ddc53cc, 0x3d992257, 0xbdc80b24, 0x3e5ead30, 0x3c442cc8, 0x3dbce27b, 0x3ceb3bbe, 0x3d71358e, 0xbd911194, 0x3e0a2e61, 0xbc0f66dc, 0x3d9ca8f5, 0xbc929c66, 0xbbfad237, 0xbd3a6f3b, 0xbd83bc4f, 0xbd0f5d1c, 0x3ca44590, 0x3e27bd13, 0x3d9be3a6, 0x3d58052b, 0x3edba85a, 0xbe23a7fc, 0x3f282b91, 0x3f98ce71, 0x3f234fac, 0x3dfe1ca1, 0xbe445d1c, 0xbdf60fe5, 0x3da39927, 0xbc3273c2, 0x3cd0b15f, 0x3d6b3d8a, 0x3bdf3b9f, 0x3da4e7de, 0x3cba3ee5, 0xbc3a828e, 0xbdc20f0b, 0xbe2c538c, 0x3e0b705c, 0x3d8f74dc, 0x3e0fcee4, 0xbcee4f0d, 0x3e19193c, 0x3d08b86f, 0xbbd1a7fc, 0x3d912a06, 0xbe6d491f, 0xbe828ed3, 0xbdf098e3, 0xbf0eb01a, 0xbe99a357, 0x3ebaa241, 0xbc84fffb, 0xbd24e274, 0xbd5c874c, 0xbea845fb, 0xbce2fedb, 0x3d03b15f, 0xbe2e97a9, 0x3a37c001, 0x3b503a54, 0xbddea7bd, 0xbcf8c6b3, 0xbdaffe11, 0x3c2c6e6d, 0x3db5e523, 0x3dbca044, 0x3c269706, 0x3b1a9f78, 0x3d8cb816, 0xbcea3bc0, 0x3d1641fb, 0xbdcce66f, 0x3d44600e, 0xbe5e6fbb, 0xbe1f74ad, 0x3e2be7f2, 0xbdacdb1c, 0xbf1083cd, 0xbf558d4a, 0xbcf8736a, 0x3ee28b81, 0xbde426bd, 0xbecce812, 0x3ea309d2, 0x3e43807c, 0xbe77fafa, 0x3d358852, 0xbe6c87f8, 0xbdd19b6d, 0xbdc1dd0b, 0x3ceea031, 0x3d196149, 0x3c90014e, 0x3d261791, 0x3d9f7642, 0x3d1ceb68, 0x3cad2ba2, 0xbde1a9a6, 0xbd8fc5af, 0xbdd37e31, 0xbd41e125, 0x3d90c8cf, 0xbdaf9cf4, 0xbda77400, 0x3e6ce4a2, 0xbf2560fc, 0xbe89372b, 0xbda75e75, 0x3f092371, 0x3e80410f, 0xbea84ef1, 0xbd0fb840, 0xbed03653, 0xbd3a0897, 0x3de21277, 0x3d560151, 0x3ddebe4d, 0x3d2f81ec, 0xbc78163d, 0x3d174863, 0x3e018c44, 0x3c4e887e, 0xbd9933f4, 0xbd3b4818, 0xbb93955a, 0x3c381a3a, 0x3de38a81, 0x3cdc233d, 0x3e03ef87, 0xbb80ea83, 0xbe073c4d, 0xbe096bd1, 0x3f04308e, 0xbf0f05ff, 0x3ea068ed, 0xbdcbb567, 0xbc892bff, 0x3e602018, 0x3f05b485, 0xbe869ab9, 0xbf4ee660, 0xbe9c2deb, 0xbe0913a6, 0x3c83fb53, 0xbdaf8ef0, 0xbccf5d11, 0x3dced516, 0x3e5a18a5, 0x3cc6061f, 0x3d1b9657, 0xbd7cf702, 0xbd5d4583, 0xbd24de28, 0xbdcdf674, 0xbdba33c7, 0x3cd23369, 0xbe8696fd, 0x3dfc1f24, 0xbe65f2ef, 0xb9c374e5, 0x3ead5630, 0xbf62f1ac, 0xbe264e3a, 0x3ce6388d, 0xbd523e23, 0x3e0cb39e, 0x3e8c158c, 0xbe0d8722, 0xbeaf3384, 0xbf0dad4d, 0xbf3c9d6e, 0xbdf352a7, 0x3d60a27c, 0x3d7fdcc4, 0x3df85f84, 0x3e4e89d2, 0x3e04e6a0, 0x3dd60ea9, 0xbdfba256, 0xbc9005e7, 0xbe1afcc3, 0xbd5330a8, 0x3d12c333, 0xbe14d4ab, 0x3d6ff5d1, 0xbd5b25d6, 0xbceab08a, 0xbd8304e6, 0x3e82251f, 0xbf3a42b6, 0xbdb77933, 0xbe0aa343, 0x3f0d3461, 0x3d985b19, 0x3f58ecff, 0x3e5375c7, 0x3e2a95f1, 0xbf1908a4, 0xbf7ab79b, 0xbf8b1a7f, 0xbfc37fde, 0xbf984917, 0xbeabc1da, 0xbddf5072, 0xbe0f5fa0, 0xbdf646b0, 0xbd313d45, 0xbde01fa4, 0xbd4171ab, 0xbd9b742d, 0x3ddba54e, 0xbdffee1d, 0x3e5352b3, 0x3e524700, 0x3d65036f, 0xbe6737b9, 0xbe4b61c5, 0xbf237371, 0x3e5bc5af, 0xbd46d13e, 0xbd737bce, 0x3ef6ffd0, 0x3f645246, 0xbdcddcc2, 0x3e81cbed, 0xbd1e6cfb, 0xbd3691fd, 0xbe948e4a, 0xbefdc756, 0xbf86cddf, 0xbff7e8b6, 0xbfcc5e1e, 0xbf6daaad, 0xbecc20cc, 0xbe9834d6, 0xbdfafb74, 0xbd7b1cd5, 0x3dfd07cf, 0x3cf2926c, 0x3dbe19fc, 0x3e245cf6, 0x3d8a958b, 0xbcb96e61, 0xbd87fc58, 0xbe33c678, 0xbeda15f7, 0x3e1f119e, 0xbda31928, 0x3cffaf24, 0x3ea27c2d, 0x3f4e7788, 0x3f38d514, 0x3ed8341d, 0x3e7f1316, 0x3eaf230d, 0x3e6bcdc5, 0x3ec27f60, 0x3e74afbf, 0x3e9be5d0, 0xbd39be02, 0xbe771744, 0xbe7f6004, 0xbe0fe173, 0xbd8b6ef0, 0xbdf42400, 0xbda95635, 0xbe0922dd, 0x3d708e40, 0xbc1f4bdb, 0xbd72fb25, 0x3e89b1b1, 0x3ef0217a, 0x3dad3d55, 0xbdfe259f, 0xbea5b8e0, 0x3e514808, 0xbcfd07ac, 0x3e9efb9d, 0x3ee666ed, 0x3e0a58ae, 0x3e29d2bb, 0x3ddfd3db, 0x3dc8564e, 0x3c26b5d3, 0xbda81150, 0x3d827097, 0x3e82cf40, 0x3d45d534, 0x3d5dad2b, 0x3d803e1c, 0xbda6a6d2, 0xbdd7f4d0, 0xbdc5fe96, 0xbe30cc1a, 0xbd58bd71, 0x3c80471f, 0x3ceb8125, 0xbe4e76b4, 0xbe815302, 0x3d96f81f, 0xbf18b0cd, 0xbf50b011, 0xbf184027, 0x3d9f110b, 0xbd975f19, 0x3edaa15c, 0x3e97b993, 0x3d57c7dc, 0xbe5ef322, 0xbdf64843, 0xbe811618, 0xbd96e2df, 0xbb8724ee, 0x3d999b8f, 0x3e54123f, 0x3e34bf21, 0x3e511d0d, 0xbcec74bd, 0xbdb17bd0, 0xbd5320d2, 0x3dbdd907, 0xbd714094, 0xbe24c219, 0xbe154e83, 0xbd71946d, 0xbe86a9ba, 0x3c16959f, 0xbe3047c8, 0xbebf63e2, 0xbf3ef84b, 0xbe9c5cf1, 0xbb6d356e, 0xbd4fffd6, 0x3da8df16, 0x3f6f1efd, 0x3eeed519, 0x3ecc105d, 0x3d8eb522, 0x3d9cc7cd, 0x39d6bed7, 0x3e37cc5c, 0xbe19b495, 0x3e6d1655, 0x3d4db2d5, 0x3c161f36, 0x3de1e082, 0x3d960e1f, 0xbd4c065f, 0xbe0243f8, 0xbd8ea514, 0xbd8a637e, 0xbcc4c0a0, 0xbdc7f1ed, 0xbe22503f, 0xbe20b3a3, 0xbe82e751, 0x3e569a3c, 0xbf4d6457, 0x3db65c0e, 0xbc9fac50, 0x3d97fdf0, 0xbc93a9e4, 0xbe81cedd, 0x3f1bd9ba, 0x3f65a7d9, 0x3e22201b, 0x3e8ba1cd, 0x3e3e259d, 0x3d9037fd, 0x3e0917c4, 0x3d8e32ba, 0x3da8e275, 0x3d828286, 0x3d37a6c9, 0x3d43dac6, 0x3d254ce9, 0xbc928e20, 0x3dcc3c3a, 0xbe0b8941, 0xbe25c8c1, 0x3c26341a, 0xbe2904de, 0x3e97ad1c, 0x3f181fa1, 0xbe9ccf02, 0xbf48b4b5, 0xbdef7bb7, 0x3cff3830, 0xbcccdc6a, 0xbc3b6b58, 0x3e60206d, 0x3dcd294e, 0x3f304834, 0x3f936abf, 0x3f10ff50, 0x3f17db19, 0x3f272e5e, 0x3eb7d875, 0x3e1b9088, 0x3e3bb245, 0x3e400d4e, 0x3dfd2ff3, 0xbd850932, 0x3e29200b, 0x3da3502d, 0x3dc412ae, 0x3e10249e, 0x3e33ed5c, 0xbddfe396, 0x3ea3f934, 0x3db558d0, 0x3ec9c55e, 0x3f97de6e, 0x3ddd2ddb, 0xbda406c8, 0x3cdaa138, 0xbd111d69, 0xbd7af8ec, 0x3cacecc4, 0x3f43d01c, 0x3f29abb2, 0x3eeed574, 0x3ea4ac31, 0x3e6c61fc, 0x3ec6df68, 0x3ea0fb6b, 0x3eba75d0, 0x3ee8f8ca, 0x3ea94956, 0x3ebea4a8, 0x3f39e3bb, 0x3e28be4f, 0x3ed0d592, 0x3ec4ae5e, 0x3f1096dd, 0x3ede764d, 0x3f43b496, 0x3f5aeedb, 0x3f58d010, 0x3f81d259, 0x3de8b93e, 0x3c1ba03d, 0x3daee288, 0x3d097328, 0xbd68bcba, 0x3dae1134, 0xbb49f8a0, 0x3caf7ea4, 0x3e255577, 0x3e383803, 0x3ed70492, 0x3ef5386f, 0x3ec8da6c, 0x3e9aedf0, 0x3eafec4f, 0x3eefb8c7, 0x3f098ef1, 0xbd186d5a, 0x3f28601a, 0x3c717f98, 0x3ebedb70, 0x3dc6d0aa, 0xbd302c79, 0x3e9499f6, 0x3d122b17, 0xbe511cc5, 0xbd34141d, 0x3cb2f79e, 0xbd577911, 0xbc9e6abc, 0x3d5cd4d8, 0x3daf8294,
	0xbd590d8d, 0x3d8a8efa, 0xbc1c77b0, 0x3d20ad0c, 0xbd9fa1b8, 0x3c30da78, 0x3d5b7574, 0xbd2c8551, 0x3c9d2934, 0xbc0177c8, 0xbdaf93a6, 0x3da37b8e, 0x3ea4e531, 0x3ea20394, 0x3e39502c, 0x3e13d94a, 0x3da3aa82, 0xbd5b84b7, 0x3d76a214, 0xbcf5ca46, 0xbd288dc6, 0x3d95445c, 0x3ceb9074, 0x3d1007a8, 0x3d6ebbf8, 0xbd943a49, 0x3cd05a2c, 0xbd539094, 0x3d64eaac, 0x3cd739d4, 0xbd062422, 0xbcf9b836, 0x3e1f8461, 0x3eb2a3aa, 0x3f214263, 0x3f2c5d01, 0x3f1ee7a9, 0x3f0eaa1d, 0x3f75d908, 0x3f82318f, 0x3f8b683c, 0x3f88a4d3, 0xbf05153a, 0x3ef86894, 0x3fa681fb, 0x3fb84215, 0x3f98e8dc, 0x3f95521e, 0x3f91895b, 0x3f2066f1, 0x3f189f31, 0x3f0561b2, 0x3d836f14, 0xbbac5040, 0x3c8a0458, 0xbd3e58f1, 0x3cdb9274, 0x3d8b6e60, 0x3db5d24d, 0x3efdb031, 0x3f3e707a, 0x3f887847, 0x3f95d7bd, 0x3fd5b0b0, 0x3fd40398, 0x3fbfbb0f, 0x3fbda9b5, 0x3f9a3ae5, 0x3f4c5e1b, 0x3dae5f5b, 0x3f0d13ad, 0x3e49eca2, 0x3f07aa1b, 0x3f6bef9b, 0x3f84b4fc, 0x3f035c40, 0x3f823d48, 0x3f86e646, 0x3f2beb21, 0x3f89af0a, 0x3f02f268, 0x3bfa2332, 0xbd09a9d1, 0x3d02aaee, 0xbc13d4e0, 0x3d1b43e2, 0xbeee9b3b, 0x3f467f86, 0x3f77f6e5, 0xbb6f07a5, 0x3ed145f6, 0xbdd7fc38, 0x3dedb121, 0x3f1ec148, 0x3e300ef8, 0x3d305e39, 0xbdc89697, 0x3e832c0a, 0xbe13850c, 0xbe183a21, 0x3e4e7bdd, 0x3dc5c18a, 0x3e8440c3, 0x3e4cf1c6, 0xbe0291ed, 0x3f010d30, 0x3e5bc5f0, 0x3f128994, 0x3f46e241, 0xbef0a97d, 0xbe4db8fd, 0xbd042e44, 0x3cf7f9fc, 0x3da4435f, 0xbf13f3a6, 0xbe224e9b, 0x3e1757d7, 0xbed04016, 0x3e013806, 0x3b9a9f32, 0xbebec4b8, 0xbe843b41, 0x3e07d383, 0xbe2cd176, 0x3e023615, 0x3d191233, 0x3b7d61f2, 0xbd6ccd3b, 0x3d8f7f98, 0x3e0c07d2, 0x3b88a859, 0xbc37f8ab, 0xbdc985d1, 0x3d96da78, 0xbe8da457, 0xbe34fa81, 0xbe6989dc, 0x3ec98d64, 0x3f008eeb, 0x3f50a08e, 0xbd9d68fe, 0x3d5e59d4, 0x3d9daf0f, 0x3d2a86c6, 0x3d124804, 0xbe9ba10f, 0xbe9b8899, 0xbe17e851, 0x3d58fc81, 0x3c2ad403, 0x3d96ff08, 0x3c832f52, 0x3d3ad240, 0xbdac63cb, 0x3d8f1052, 0xbda0bc00, 0x3d5c33d4, 0x3d97d9f8, 0x3da35d23, 0x3d3990e9, 0x3e7cd904, 0xbd40af6c, 0x3d4887e0, 0xbe31afbb, 0xbe410db5, 0x3e80f794, 0x3e4b6f57, 0x3ef72a99, 0xbb108d00, 0x3daa3d4e, 0x3e8e0001, 0x3d8d01f0, 0xbdf920c0, 0xbdfa396d, 0xbf0bab39, 0x3e89efcf, 0x3db4728c, 0xbdb81f4c, 0xbe9d4d34, 0x3d9806a9, 0x3d6559bd, 0xbda10f55, 0xbdc895ac, 0xbc4f13b9, 0xbd0c929f, 0xbd9e4a71, 0xbe79fdd4, 0xbd191e07, 0xbe86ad55, 0xbe86996a, 0x3d099bca, 0xbdb2ce9e, 0x3de7d0ee, 0x3ea8358b, 0xbd6f9341, 0x3e34cc9b, 0xbd8a9cb7, 0xbd175497, 0x3f3995a0, 0xbd10b7c3, 0xbe824e43, 0xbd8bdfb9, 0xbe084e84, 0xbe0759c2, 0xbbb43d5e, 0xbcaaf32a, 0x3e5ad5cf, 0x3d1c9d33, 0xbdadcf87, 0xbdf4b2a0, 0xbe3e69ea, 0xbe3e462e, 0xbd03ff2e, 0xbe0b5da5, 0xbda7b73f, 0x3cc8b0c2, 0xbe66b5b8, 0x3e3a9542, 0xbd09a4c6, 0xbdd62bfe, 0x3e8f3694, 0xbc6cafb0, 0xbe9365ae, 0x3e7db7e2, 0x3db232ec, 0x3eda90b2, 0x3eadd537, 0xbd29bbce, 0xbe335d76, 0xbed995c6, 0x3e8a0039, 0xbe31a6e2, 0xbd1d7a32, 0x3e020d0b, 0xbd2cafe6, 0x3dc7356e, 0x3d2f9b5e, 0xbd889da5, 0xbe077eeb, 0xbe4bb27f, 0xbe0d4273, 0xbdd82c25, 0xbeae0951, 0xbe3b4dc3, 0xbd8d735a, 0xbdb44f40, 0xbe06abe3, 0x3bf1b078, 0xbe61bdfc, 0xbdcfb534, 0x3d3551ca, 0xbe193514, 0x3d17085d, 0xbda2acf3, 0xbe8c5de9, 0x3ecba28b, 0xbd56a29f, 0xbe502edb, 0xbe491d52, 0xbde72073, 0x3d80ed7d, 0xbd139fd7, 0xbd3664b1, 0x3cb92260, 0xbbc3e25a, 0xbd72cef0, 0xbe190906, 0xbdaba5a6, 0xbdb8b529, 0xbe342212, 0xbe82fd38, 0xbd98a4f8, 0xbe01f7d4, 0xbc491124, 0xbd032ea9, 0x3e3624e1, 0x3eac704a, 0x3f2104a2, 0xbe8ae76b, 0xbf4e8db7, 0x3d741389, 0xbe0fedb2, 0xbf1d2e9c, 0x3e972f64, 0x3e9f4452, 0x3d476128, 0x3e903817, 0x3d4f0594, 0xbe488396, 0xbc94b2be, 0x3dd974df, 0x3e192548, 0xbdd5fd5f, 0xbdde4cec, 0xbe0fe7d9, 0xbef13f16, 0xbe42f466, 0xbe212234, 0xbd1fb094, 0xbd7d3599, 0xbcba5715, 0x3c8465b6, 0xbd94adc0, 0xbd09d936, 0x3e04077e, 0xbf1b879b, 0xbe85137f, 0xbf2d914d, 0xbd9ccee2, 0x3d9155c7, 0xbf1c0759, 0xbd9fa1e3, 0x3d30d0c4, 0xbdfddbcf, 0x3e440036, 0x3e18d6fa, 0x3d4a6a30, 0x3deb5a13, 0xbe31d901, 0x3d64c6fb, 0xbdc92950, 0xbe80f1c5, 0xbe2ec749, 0xbee91b7e, 0x3c9535db, 0xbe6477fe, 0xbd973c03, 0x3df69413, 0xbdff1d58, 0x3db4f933, 0xbe36305a, 0x3e35dcf7, 0x3e69729a, 0x3e5f1342, 0xbf0dce14, 0xbee5fb00, 0xbd949375, 0x3e1ef816, 0xbf0dd303, 0x3eb2599b, 0xbe1f3079, 0xbe1b0580, 0x3dd0f3b7, 0x3d5ed6d6, 0x3d045725, 0x3d4002d2, 0xbe129693, 0x3d10aca1, 0x3e88113b, 0xbe1f6eab, 0xbe7eab4a, 0xbe5203a1, 0x3dc06bf8, 0xbb565f12, 0xbdcb1add, 0x3b509bca, 0x3dc83ae2, 0xbdfb2f2c, 0x3d9a0f57, 0x3df579fc, 0x3f0ebf10, 0xbda619c6, 0xbf3d0852, 0xbf562f04, 0xbda66dd2, 0x3dc00709, 0xbdef6231, 0x3ef1b818, 0xbe3ebff2, 0xbe84f7e1, 0xbe259679, 0xbea08799, 0xbd52ef4e, 0x3be2f9ed, 0xbad0d18a, 0x3e11d6fb, 0x3e67edcf, 0x3e8f0de6, 0xbe313a04, 0x3d046982, 0xbe283544, 0xbcb72221, 0xbe1f9693, 0xbde7e7b4, 0x3db61a88, 0xbceabaef, 0x3e00a3e1, 0xbc4c4edc, 0x3de0d554, 0xbe5ec0ef, 0x3f2d7b84, 0x3f271f52, 0xbd8d2d7f, 0xbde5daeb, 0xbd979719, 0x3e876189, 0xbf78e2e3, 0xbdda1fca, 0xbe57cde4, 0xbd59f412, 0xbe8b838d, 0xbdfc9c43, 0xbda25253, 0x3e794117, 0x3d6f90aa, 0x3dcf5adc, 0x3cdae34c, 0x3a0b82a1, 0x3d028129, 0xbde993d5, 0x3d58c0a3, 0xbd6d8c36, 0x3cf0b16a, 0xbd11d852, 0x3dce7820, 0xbd809a4c, 0x3b46bbfe, 0xbea9aad7, 0x3f77b48f, 0x3f29c9f5, 0xbd000077, 0xbe2145cf, 0xbe2a5489, 0x3de2be24, 0xbf0c2058, 0x3d9373fb, 0xbdceab56, 0x3d981d96, 0xbd28d700, 0x3e127c29, 0x3e0b66fa, 0x3d659ebe, 0x3dea5983, 0x3e75de91, 0x3d479a4c, 0xbdbb08c4, 0xbcb415a0, 0xbdcec310, 0x3b6d613d, 0xbe41e28d, 0xbe23cd77, 0x3e42a7d5, 0xbe103271, 0xbc7d82eb, 0x3d70f12e, 0x3f3b3074, 0x3d63e4e6, 0x3f4ddcea, 0xbdace3b5, 0xbe019376, 0x3e095ede, 0xbe41546e, 0xbec3a974, 0x3e1bbdc8, 0x3c3e7d65, 0x3dd71e13, 0x3d409dd7, 0x3db48b36, 0x3bfa21db, 0x3e16d97b, 0x3e90ea44, 0x3e42d605, 0x3dc3104a, 0x3d99706a, 0x3e1bf99c, 0x3d722023, 0xbdb124a5, 0x3d96147c, 0xbde4c2c0, 0x3d2c2e83, 0xbdcb6a08, 0x3e519e58, 0x3c062085, 0x3f5cf49b, 0x3e957b97, 0x3f3b8e4d, 0xbd670868, 0xbea5181b, 0x3caa306c, 0x3f138ede, 0xbe7000c6, 0xbe1d352a, 0x3d7cba24, 0xbd42fcb3, 0xbda82360, 0x3e091493, 0x3db48c09, 0x3ddbbbb5, 0x3dfc9b6c, 0x3de55a79, 0x3da819b4, 0xbdf01147, 0x3c62c38d, 0x3beeb194, 0x3d02cb2e, 0xbbd19c55, 0x3e1cef8e, 0xbd549ec9, 0xbdb7f286, 0xbdc93bc6, 0xbea0cb6a, 0x3f1a54d1, 0xbecd1222, 0x3f8278a4, 0xbdf0692d, 0xbe911591, 0xbdc6df90, 0x3e354954, 0xbe4199a8, 0x3d3d266d, 0x3e50fefc, 0x3de02ec5, 0x3de051eb, 0x3db93011, 0x3e8687e8, 0x3c238930, 0x3e82ab4c, 0x3da781c0, 0x3db5a113, 0xbd8d6758, 0xbdda7e59, 0x3d9429e0, 0xbbab9412, 0x3b9f8088, 0xbe759594, 0xbe0042b5, 0x3e0a7dcc, 0x3db3673b, 0x3e591c1e, 0x3f3bca28, 0xbe6081f2, 0x3eef9340, 0xbdd24932, 0xbda8a43c, 0x3e6530a5, 0x3d6881ca, 0xbe50c479, 0xbd3ff43a, 0x3c058243, 0x3d880173, 0x3e085ec0, 0x3d81efff, 0x3eacd9cd, 0x3e081a9f, 0x3e3ce9e7, 0x3cd2b286, 0x3db37fe3, 0x3dafa931, 0xbd8c10bd, 0x3e6be293, 0xbc38b00f, 0xbd3496bf, 0x3e86a25a, 0x3cba1015, 0x3e6c1beb, 0x3e1db24d, 0xbe374fe5, 0x3e80f66d, 0x3cbdf07e, 0xbb6a9998, 0x3d5ebd28, 0x3e015db0, 0x3e81bc5d, 0x3e186e06, 0xbcea95fc, 0x3e9aa1c3, 0xbe09fb8c, 0x3e052025, 0x3e523724, 0x3dc60175, 0x3ea5a45c, 0x3e2bc129, 0x3e987886, 0x3c8b3790, 0xbe2255c4, 0x3df14fa8, 0x3d0b1002, 0xbe0c6b9e, 0x3e196cec, 0xbc4f469c, 0x3dc49935, 0x3b324f74, 0x3d149091, 0x3e0da16e, 0xbd28a984, 0x3b67b0d2, 0xbe363bfa, 0xbdbbf8d0, 0xbd937e97, 0x3e650539, 0x3dbc5663, 0x3eaa6d2f, 0xbded7ef1, 0xbe57c8aa, 0xbc8bea0f, 0x3e5ab719, 0xbe4a22e0, 0x3e0cbb45, 0xbd7788bd, 0x3df957bd, 0x3e2524f0, 0x3e108e46, 0x3d8f3f81, 0x3e1a75cb, 0xbe09d97c, 0x3e456bce, 0x3e238ebc, 0x3e13928d, 0xbd88d60a, 0x3d95e630, 0x3ebf2925, 0x3f0600df, 0xbd45a316, 0x3f39da8d, 0x3f481c56, 0x3c83652d, 0x3d86f13a, 0x3d3614ef, 0x3a0bd5b3, 0x3e74e7ae, 0x3e8b40a2, 0x3e84266c, 0x3e02aaa2, 0x3d273835, 0xbd02d0b4, 0x3e50b259, 0x3d8618d9, 0xbda59339, 0x3e41a3a9, 0x3e074ae4, 0xbce7b39d, 0xb8e3bb60, 0xbd835dd6, 0xbde34f2e, 0xba5df4db, 0x3d5c3c71, 0x3e7cf9c0, 0x3e017f2a, 0xbdd25c5a, 0x3cde10a3, 0xbf10d22b, 0xbf284214, 0xbef4674f, 0xbdb86f5c, 0xbcc73394, 0xbd38be1f, 0xbc228817, 0x3e92311a, 0x3e11105d, 0x3c8ba4dc, 0x3c4af767, 0xbda6e29b, 0xbde29726, 0xbdad07c6, 0x3cbd7ceb, 0xbd6d87e9, 0xbd31d894, 0x3e1c9d35, 0x3e7a017c, 0x3ddba0fd, 0x3dbd1a47, 0xbde468d1, 0xbcfa4aac, 0xbda7c5a3, 0x3e0d57f5, 0x3e857444, 0x3e91a29b, 0x3eab0ac3, 0xbf8f4697, 0xbf76d5bf, 0xbf5434b0, 0xbd85df37, 0xbdaa24f6, 0xbd5fa404, 0xbd9789eb, 0xbe15a637, 0xbef40a98, 0xbe55dcec, 0xbda37efc, 0xbeab4328, 0xbe070032, 0xbdac1643, 0xbcc0c6fe, 0x3e6672d6, 0x3df57b4c, 0x3e190d33, 0x3c874950, 0xbb165425, 0x3ebbdd04, 0xbd58036d, 0x3df01925, 0xbd5dafe0, 0xbdeb4ddd, 0xbecb346a, 0xbe564c49, 0xbedd7183, 0xbcedef01, 0xbe7135ae, 0x3e3d081a, 0xbdadafe2, 0xbc8aa004, 0xbda2e222, 0x3d287515, 0x3ef98b9c, 0x3eb0d26d, 0xbf038090, 0x3ed233bf, 0x3ebe2239, 0x3e32c62e, 0xbd1084ae, 0x3e93c2c1, 0x3d80d759, 0xbd6b2365, 0x3cde4d16, 0xbc98521a, 0x3ec23dfb, 0x3e0cb0bd, 0x3e80ba20, 0x3de6a2f3, 0x3d8732c7, 0x3e14de1e, 0x3ed1f975, 0x3e1fb8ad, 0xbf04007f, 0xbefb2b29, 0xbe9144e7, 0x3f191e63, 0xbcd189f4, 0x3d8a9c54, 0xbc386de0, 0x3c864478, 0xbd71b558, 0x3d04380a, 0xbf15636f, 0xbe4797e1, 0x3df659b0, 0x3ed4d784, 0xbe994803, 0x3dcab767, 0x3eb383c2, 0x3ed43ba6, 0x3e9691f0, 0x3e428102, 0x3e8bb802, 0x3e272d6b, 0x3ea95d5b, 0x3e57c486, 0x3deb0d36, 0xbe899baa, 0xbe9a1c1e, 0xbe3ce004, 0x3f14504f, 0x3e837378, 0xbd8a0af8, 0x3d884f3e, 0x3da1b384, 0xbd87bdf9, 0x3c7963b0, 0xbc920ed0, 0x3cc80850, 0xbcedefd6, 0xbcd703cc, 0xbd3aea24, 0xbdd5b107, 0xbd93c65f, 0xbd042466, 0x3ed30e93, 0x3eabaea1, 0x3ee30120, 0x3e95ae93, 0xbe23c719, 0xbe93171d, 0xbe5aa4af, 0xbdf3b038, 0xbcb9b7ac, 0xbd0f330d, 0xbd777bfa, 0xb9406ef4, 0xbdb053b7, 0x3d1e32f0, 0x3d677ca0, 0xbc04e3d8, 0xbcd5b91c, 0xbd4f8293,
	0xbcedb860, 0xbd31419b, 0x3da870d4, 0xbcbf9ce8, 0xbc009af8, 0xbd89c13d, 0xbdaf4db2, 0x3d01677a, 0x3d0c62c8, 0x3daddea8, 0xbd3b8a0d, 0xbd20e6f4, 0x3ef644b2, 0x3eebdcbf, 0x3d3118b3, 0xbbb82f3b, 0x3ccec75c, 0x3d9dc082, 0x3da8c4ba, 0xbc85df4c, 0xbcc1378c, 0xbd58549e, 0x3c3b85b0, 0x3d61f4b8, 0xbd85628f, 0xbc800df4, 0x3d804ba4, 0xbc724b68, 0x3c1e8e28, 0x3c40c1a0, 0xbcb139f0, 0xbc7ae2f8, 0x3e33d4c8, 0x3eab7a4f, 0x3f11cef1, 0x3f18881c, 0x3f13ffe2, 0x3e87fe52, 0x3efcfdd5, 0xbdcf8913, 0xbe060793, 0xbdcbdcaf, 0xbf17a7b9, 0x3dac1c8e, 0xbe182605, 0x3f2cf90b, 0x3fbaf90b, 0x3f8bdcc5, 0x3f85aca5, 0x3f3face4, 0x3f23be76, 0x3eb1bb12, 0x3d272138, 0x3bf3afc0, 0xbba55e90, 0x3c7f5be0, 0xbd99637c, 0x3da3c5ca, 0x3ea5cdfb, 0x3ed8f6cd, 0x3f42f2b8, 0x3f36d38e, 0x3f17fcbd, 0x3eb0775b, 0x3f2b496b, 0x3e801892, 0x3f37b355, 0x3eae10c4, 0x3ee89e43, 0x3ea5b0eb, 0x3e8df290, 0x3ee762e9, 0x3e009a8a, 0x3e787781, 0xbc11d32d, 0x3f04d3b0, 0x3e6edc57, 0x3e0d0f3a, 0x3e12a599, 0x3f4a7145, 0x3f18ff53, 0x3e7bfd89, 0x3d389aac, 0xbd216d07, 0x3d491e3c, 0x3d7a423c, 0xbe0a2908, 0x3f09de72, 0x3f167253, 0x3c049749, 0x3f1ce98d, 0x3e143504, 0x3e11c219, 0xbe23254b, 0xbcc75b16, 0xbda65454, 0xbe603bc5, 0x3d3b9db2, 0xbe083c81, 0x3e0a12e7, 0xbd1951fa, 0x3d45dde8, 0xbdd29e5b, 0x3e503fc6, 0xbda23d3f, 0x3e717baa, 0x3dc388f2, 0x3e80bb1b, 0xbd9049b4, 0xbeff60ed, 0x3d242a1d, 0xbcace194, 0xba56fa80, 0x3da2f856, 0xbe95f3df, 0xbe1d87ae, 0xbe8db764, 0x3e1e52fe, 0x3eb178db, 0xbe03855e, 0x3b8a0bd0, 0xbe221035, 0x3e4dda63, 0xbdea0aee, 0xbe53cc7d, 0xbbc1282a, 0xbdd36d0b, 0xbd0997fc, 0xbe21eca0, 0xbd57dbb0, 0xbe916705, 0x3e002f21, 0x3d1b2b88, 0xbe148490, 0xbee2fafe, 0xbc75ca7b, 0xbefab413, 0xbf5b4077, 0x3cfcc150, 0x3d2cf457, 0x3ce7dc18, 0x3cd65640, 0x3f033c46, 0xbeb4ae04, 0xbea300e8, 0xbedcc836, 0xbdca5994, 0xbea4ba6e, 0x3d53f15b, 0xbe0d3585, 0xbbc6dd99, 0xbe23800a, 0xbdfe57b3, 0xbdae1383, 0xbdb7db23, 0x3ca65e09, 0xbe5cbb95, 0xbe0808fc, 0xbc37a99a, 0x3cf3f33d, 0x3bbd48e6, 0xbd3205ca, 0xbe932c85, 0x3e3f0e15, 0xbf09bbae, 0xbf42ce05, 0xbea58274, 0xbca69560, 0xbdaf41a0, 0xbbf8d3f0, 0x3ece787a, 0xbe54dc2e, 0xbdf90133, 0xbd5e9c47, 0xbde1bfc0, 0xbe252349, 0xbe5453a5, 0xbdcf0bd2, 0xbe315536, 0x3a7edd44, 0xbe42b235, 0xbd8dabd6, 0xbe486350, 0xbcedb1e9, 0xbe16cadc, 0xbe41ba9d, 0xbd865645, 0xbe08dab2, 0xbeaec87c, 0xbda7a378, 0x3e985c66, 0xbe6b03f6, 0xbec86214, 0xbef7174c, 0xbf02ec75, 0xbf1ada01, 0x3c972d58, 0x3aaec0d3, 0x3e06207f, 0xbeb8458f, 0xbf41a65f, 0xbebd8afe, 0xbe11eab4, 0x3d7a6459, 0xbdb53c36, 0xbc9e20e0, 0x3e4f8fe4, 0xbd3cb6ed, 0xbda8e5eb, 0xbd95c09e, 0xbbd1e3b1, 0x3b33937d, 0xbe5bc0f0, 0xbce55295, 0x3dbed7b4, 0xbe98c631, 0x3d58b502, 0xbf5d995a, 0x3dc39da4, 0xbe847a09, 0x3e7f0ddb, 0xbe90fd89, 0xbd1397d9, 0xbf445004, 0x3c74bbf8, 0x3d2fd5f7, 0x3d809b51, 0xbe7a6a2b, 0xbfab0bf6, 0xbd0e5488, 0xbd4d2b5a, 0xbda83c46, 0xbe6a89d2, 0xbe336907, 0x3d214280, 0xbe64ec16, 0xbe070997, 0x3cf038fe, 0xbd3151de, 0xbe0f44fd, 0xbe28f61d, 0x3c865863, 0xbe94f0fd, 0xbe6e83f7, 0xbe6fc61d, 0xbf41cc95, 0xbee7fb6e, 0xbf8cdc04, 0xbf22005e, 0xbedeb466, 0xbe7085f2, 0xbeb41014, 0xbcf0f3ca, 0x3e344e92, 0xbde7e207, 0x3f0d0173, 0xbed35f36, 0xbd7318ff, 0xbe839bb6, 0x3e4d9fee, 0xbd76af29, 0xbebc9797, 0x3ce98ceb, 0xbd43521d, 0xbdad23fb, 0xbe2ca37d, 0x3e443b49, 0x3df28445, 0xbdf2b2ea, 0xbed04886, 0xbe85ca51, 0xbe2e2df7, 0xbdead356, 0xbe03b630, 0x3dcc53bc, 0x3cbe0330, 0xbf582312, 0xbf5db6b3, 0xbefabc8b, 0xbe502d6c, 0xbd82cc4c, 0x3d8f76a4, 0xbeab4a41, 0xbf005f15, 0xbefaf131, 0x3de042d6, 0xbe39a226, 0x3e40a9b9, 0x3b8a7ec5, 0xbe59c709, 0xbe02af10, 0x3cbbb31f, 0xbd74be25, 0xbd043c2d, 0xbe064f7d, 0xbc8cc9e0, 0x3d5cb0cb, 0xbcc17c52, 0xbe34706d, 0xbf0706b3, 0xbe412125, 0xbe245dbc, 0xbdc140ac, 0x3e586d7d, 0xbec27420, 0xbf37f673, 0xbef343e4, 0xbd93d77f, 0xbd5c6d3f, 0x3e78a624, 0x3e828367, 0xbf360737, 0xbe80a6be, 0xbcac8829, 0xbe0ebdcb, 0x3cbf6619, 0xbc0c2d71, 0xbe04fde9, 0xbe05bf08, 0xbe4e8581, 0xbe329158, 0x3cb90c1e, 0x3c8ff4fd, 0xbe7eff16, 0xbd104c44, 0xbe7d99d9, 0xbd9fdb6d, 0xbdc52d02, 0x3cc66019, 0xbd474c6c, 0x3d6fe743, 0x3dc6b4db, 0xbefda014, 0xbf2945c9, 0xbf7cb296, 0x3ec989cb, 0xbcb623b0, 0x3bb9560b, 0xbf272837, 0x3e2868cf, 0xbf027259, 0xbe9d2051, 0xbcf1644d, 0x3c7d5e0d, 0x3d0bc2be, 0xbda9ae64, 0xbd59102e, 0x3dc8d27a, 0x3d73e3e1, 0xbd14881f, 0x3dccf95d, 0xbdc030bb, 0x3dd0fcd4, 0xba5edd81, 0x3bcafbd8, 0xbe26934b, 0xbe1a164f, 0xbcc038b6, 0x3e760ae7, 0x3d45f403, 0x3d2bed4e, 0xbe87fb2e, 0xbf443810, 0xbca852ab, 0x3e9a0c84, 0xbd168493, 0xbf13bea5, 0x3e585232, 0xbf1e04f3, 0x3dd5dbba, 0x3e4f770b, 0xbe4ed75e, 0xbd35803e, 0xbdc37664, 0x3e420f9a, 0xbe402399, 0x3ccbaac6, 0x3e0ed40a, 0x3d3975b0, 0x3d8b311c, 0x3da428a8, 0xbe834093, 0xbe0ab257, 0xbdc3da0d, 0x3e1a1079, 0x3e9db3f4, 0x3c08c217, 0x3eb868e8, 0x3e7c1d05, 0xbedff6b3, 0xbf102aa6, 0x3e868e5b, 0x3d8f7536, 0xbd3f45d6, 0xbca40ac8, 0x3e30990e, 0xbf9f372b, 0xbe282848, 0x3da41adc, 0x3db32183, 0xbd662838, 0x3d9560db, 0x3e37f7c0, 0xbbd55f54, 0x3b82c1b3, 0xbc6b4e78, 0x3e1e85d9, 0x3e18da17, 0x3d24a09d, 0xbebfedc2, 0x3b243edd, 0xb9fb0a46, 0x3d8fea9f, 0x3c9a757c, 0x3e55e4bd, 0x3e3b089f, 0xbeb81f9a, 0x3d2d2991, 0xbe519102, 0x3dfa4668, 0xbce55552, 0xbb56c1a0, 0x3d89658a, 0xbeaa7b6b, 0xbf7630ab, 0xbecd11dc, 0x3e0aefad, 0xbcdce557, 0xbda4d6a3, 0x3d932c49, 0xbdbaa871, 0xbb4a9c7f, 0x3ce0fb59, 0x3e503679, 0x3e9170fa, 0xbd954a38, 0x3bf04891, 0xbd732b03, 0xbd0c32c0, 0xbda466ab, 0x3d7aa4a3, 0x3dcd1899, 0xbd19221a, 0x3c9bc401, 0xbd6850af, 0xbe4bcd29, 0xbef2bf42, 0x3e92a3df, 0x3d7c7c88, 0x3f02780b, 0x3d6cef78, 0xbeed7070, 0xbe21eb3b, 0xbb22f399, 0x3e0b55e2, 0x3ce470f0, 0xbc95f492, 0x3d87e0fd, 0x3e1bc7eb, 0x3e5d6804, 0xbe01917c, 0xbd9b2c66, 0x3ea5e89e, 0x3d2a92c3, 0xbde3954c, 0xbedb0de8, 0x3d07fc8b, 0x3ccadc16, 0x3d0aaa8c, 0x3e81cad6, 0xbc63bf39, 0x3d8c2a4e, 0x3db9d67a, 0x3cc02599, 0xbe0ae66c, 0xbdd273de, 0xbdaa0837, 0x3f0f1a16, 0x3da27291, 0xbe035c35, 0xbdb0f3b2, 0xbe85b6f6, 0x3e0fc638, 0xbe6323db, 0x3e322322, 0x3ccb7c9f, 0x3e9c71ad, 0x3dcce435, 0xbbbe2d3f, 0x3da84e04, 0x3e92ad93, 0xbb17b283, 0xbd9914a1, 0xbe27f0a0, 0x3db66aca, 0x3c29d534, 0xbc413fd6, 0x3daf5c18, 0x3ce9dd6e, 0xbd079be2, 0xbe28bf30, 0xbd1a99db, 0xbea0232f, 0xbe2c4920, 0x3e526129, 0x3ec7f338, 0xbdb60041, 0xbea2aeb1, 0xbd2fa749, 0xbe6f3007, 0xbde79079, 0x3dbc5e4a, 0xbacaea7c, 0x3df14993, 0xbc452c0d, 0xbc2c6412, 0x3e14b4a5, 0x3df90f8f, 0x3e7a5168, 0x3d1e7527, 0xbd82bcf9, 0x3e3567e4, 0x3e48c324, 0xbdca0571, 0xbd870886, 0x3c2fc616, 0xbd92d813, 0xbd40fc10, 0xbe8c2d83, 0x3e717ffb, 0xbd635b72, 0x3eed28ed, 0x3ec1131f, 0x3cc73eff, 0x3e13db21, 0xbf66d97c, 0x3c770260, 0xbd42a5a9, 0xbe6e3661, 0x3e1f9687, 0xbdb68d75, 0x3e64799e, 0x3d714289, 0x3e89e79c, 0x3e8b47c2, 0x3e6f3eab, 0x3d87ff64, 0x3cae180a, 0x3e79d9b3, 0xbd83c34e, 0x3df52f51, 0xbdb76b93, 0x3d934b7f, 0x3e5a7bcf, 0xbd2c64bf, 0x3eb32fa5, 0x3d9301c2, 0xbd5ddef5, 0xbd05cbc3, 0x3f109e44, 0x3d89c406, 0xbe23e827, 0xbda29200, 0xbf34575d, 0x3e6ee99a, 0xb9df1b0e, 0xbcfe54c6, 0xbd7cda6c, 0xbdb84448, 0xbcd1e87a, 0x3d33697d, 0x3e874d28, 0x3e7d683f, 0xbd111280, 0x3e91929a, 0x3d92c2c5, 0x3e903bc2, 0x3e41fd8e, 0x3e0fadae, 0x3dab7591, 0xbd4ca1da, 0xbd9cbd23, 0xbecfd33a, 0x3cfde7ce, 0xbdfb4271, 0xbef1256d, 0x3f17781a, 0x3ec3e6ce, 0x3e5b41bc, 0x3e92ff13, 0xbd7f64a9, 0xbdea9a26, 0xbf2962ad, 0xbd1f16cd, 0xbe0839fe, 0xbdc59d5a, 0x3ce3f90b, 0x3c8267f9, 0x3e5b72ab, 0x3e437d54, 0x3dfadf1f, 0x3e3c98b9, 0x3e82d81a, 0x3bb05936, 0x3e011ba3, 0xbe027345, 0x3e1bb071, 0xbe1c6f52, 0xbdea8a2c, 0x3dc1c5b6, 0x3dc901fb, 0x3cf655a7, 0x3d152ebb, 0xbe34660f, 0x3f05c13d, 0xbcc340e4, 0x3e8aa29f, 0x3e8de421, 0xbda2c889, 0xbe0ba440, 0xbe76a509, 0xbd9acd72, 0xbf249a15, 0x3d5de12e, 0x3e49f483, 0x3d9c1eaf, 0x3eb36847, 0xbe3b8a0d, 0xbdd0b194, 0xbd2195e2, 0xbdf5d3a3, 0x3df4fa3e, 0x3c8fb79f, 0x3da6aa8a, 0x3eaf56f9, 0x3e0e13af, 0x3e2772e9, 0xbe915396, 0xbdb9cb1a, 0xbd00e835, 0xbeee7717, 0x3ea60fad, 0x3f06bd82, 0xbd4e7575, 0xbda52b11, 0xbd65316d, 0xbd0c8bde, 0x3d5a4a16, 0xbd28807d, 0xbf1a30f2, 0xbf0063bc, 0x3dc79d77, 0x3e2d15d0, 0xbdcc9ed4, 0xbe6c205a, 0xbb93784c, 0x3d81ae92, 0xbd9dd896, 0xbdbf0843, 0x3d924826, 0xbd1e9719, 0x3ca852a5, 0xbe757b01, 0x3df3e292, 0x3e98add5, 0xbd9473fb, 0xbe4481bd, 0xbdb8af3d, 0xbebd6553, 0x3f1593f1, 0x3f3c47d9, 0xbd14fd59, 0x3cf17528, 0x3d1da988, 0x3d0193e6, 0x3d8fb8c5, 0xbcd7ec2a, 0xbe088055, 0xbf004ff3, 0xbf049a61, 0xbe29c95b, 0xbcd9fd6b, 0x3e04b6a4, 0xbe95add4, 0xbe1f2d0b, 0xbecd5ce0, 0xbe109077, 0xbe03d0e9, 0xbe97aa7f, 0xbe41953b, 0xbee58f04, 0xbcb41ad8, 0xbe340cad, 0x3b7aa1e6, 0xbea39fd8, 0xbc9b5262, 0x3e380343, 0x3f506b3f, 0x3f3678a1, 0x3d01d416, 0x3cee21f0, 0x3b496b40, 0x3d3866e0, 0x3d3f0c7e, 0x3cb16e50, 0xbd463be4, 0x3dfe92e8, 0xbe79a93f, 0xbf8ce706, 0xbf8c9e89, 0xbf6f14e0, 0xbf10334c, 0xbef9505e, 0xbf46dc91, 0xbe6c8fe2, 0xbf08ae85, 0xbf6ed4e2, 0xbf33bfab, 0xbe3f02db, 0xbec5ba88, 0xbc99744a, 0x3da54332, 0xbd9127b5, 0x3c2c5497, 0x3ccce6b0, 0xbd215d90, 0x3c4a2980, 0x3daa1aa8, 0x3d807d7a, 0xbd2f4cee, 0x3d8b5a7c, 0x3ccdcba0, 0xbd72f400, 0x3cb11210, 0x3d75a9f8, 0x3c8a50fa, 0x3e44cc14, 0x3e258457, 0x3d177d54, 0x3dd6f3b2, 0xbe096695, 0xbf417ae7, 0xbf97fffc, 0xbfa3d958, 0xbf6fb982, 0xbd805290, 0xbd9b6b2d, 0xbe450f91, 0xbe4a97f6, 0xbef8e594, 0xbefa739f, 0xbf1e8851, 0x3d74da84, 0x3c82d6bc, 0x3d92d6a4, 0x3d8d668c, 0xbd891599, 0xbcf188ba, 0xbca6e804, 0xbb72f7a0, 0x3cf4028c, 0xbb526640, 0xbd85fede, 0xbda1ed8a, 0x3d6567f6, 0x3d5e628c, 0xbbb5d628, 0xbdb9b6d5, 0x3d1f5a14, 0xbdba2342, 0xbce5960f, 0x3c1a92a1, 0x3b8d85e6, 0xbe0f8369, 0xbd6c0795, 0x3d2d3dd2, 0x3c7368d2, 0x3d47754f, 0xbd80abd3, 0xbc68ce30, 0x3cb59700, 0x3d2a22a8, 0x3d4bc740, 0x3b6e8ca0,
	0x3d81b396, 0x3c9a0fc8, 0xbb51b280, 0xbd85b7d3, 0xbda83dc0, 0xbd12d0f9, 0xbc8483d0, 0xbd70a0d7, 0x3d50a3cc, 0xbc9031e0, 0xbd0bb57e, 0xbd2d1fa0, 0xbd7dc14a, 0xbaa552c0, 0x3d762648, 0x3d80aba4, 0x3d9a687e, 0x3d281658, 0xbd146bd4, 0xbd8497ac, 0xbd59bb78, 0xbc277c38, 0x3d9b2a5c, 0xbda8fd58, 0x3dad4930, 0x3bbd6b30, 0xbd138bc9, 0xbdaa6c6f, 0x3d98ca6e, 0xbd565cd5, 0xbda57679, 0xbcbfc7a0, 0x3cf10de0, 0xbd834582, 0x3d08e50c, 0x3d8d0584, 0xbd1b3062, 0xbddd5d11, 0xbb4a2608, 0x3de26beb, 0x3e6d085a, 0x3e27b504, 0x3dfb2936, 0xbda6dc05, 0xbb9702f9, 0x3ca43cb1, 0xbde67ef0, 0xbd06edd2, 0xbd911f51, 0xbd09e3df, 0x3c77819b, 0xbcdb3e46, 0x3d7251d4, 0xbcddb02e, 0x3d905112, 0xbdaf0fbf, 0x3d285180, 0xbd48d0a3, 0xbbc83150, 0x3f4adbf5, 0x3f30c514, 0xbced392c, 0x3e7dc7ad, 0x3f13da59, 0x3dd723f6, 0xbe6c99c6, 0xbef7f93a, 0xbefd3b72, 0xbf4a24a7, 0xbf101789, 0xbf554dbd, 0xbf1ce8ae, 0xbf18e134, 0xbc1e5358, 0x3f0c0fd4, 0xbd604bb9, 0xbf1bd3cc, 0xbedeffca, 0xbef47303, 0xbf20b75e, 0xbf2826ee, 0xbf237ebd, 0xbd9b0469, 0xbce58570, 0x3da04f60, 0xbc4d9cf8, 0xbd1600b9, 0x3f3efc88, 0x3f506fa7, 0x3d8b9139, 0xbd618a9c, 0xbe342c6f, 0xbe863962, 0xbec74cec, 0xbf01ffe3, 0xbe43f46a, 0xbedaef6e, 0xbf10f4d5, 0xbed7dc7f, 0xbf01a700, 0xbf0f3cd7, 0xbf23841e, 0xbef1095e, 0xbef6fea7, 0x3d8c3b78, 0xbe36c1ee, 0xbe73cdb4, 0x3d2972cb, 0xbe651bca, 0x3de919fd, 0x3ee32933, 0xbd636829, 0x3d2be60c, 0x3d8463f8, 0x3e74d9d6, 0x3db5f23d, 0xbee2b015, 0xbe2d9c5e, 0x3e55385d, 0xbcb84479, 0xbe833883, 0xbda63473, 0xbe65dfce, 0x3e1f6461, 0xbd409a0a, 0xbe1ac0e0, 0xbdb2fce2, 0x3db87ccc, 0xbcbd2866, 0x3d3f8868, 0xbc68d881, 0xbda75f65, 0xbd980d30, 0x3dcb0a59, 0xbcbddd59, 0x3d03595f, 0x3c63256d, 0xbd8b5c31, 0x3dc9f7cd, 0xbe281788, 0xbc786e28, 0xbd3a50ca, 0xbe759416, 0x3d5bb5e8, 0xbeb0e1a1, 0xbf3a8034, 0xbee698d5, 0x3e046a6d, 0xbe1978d6, 0xbd57cd8f, 0xbe0153ca, 0x3d01669d, 0xbdeb41b4, 0xbde49495, 0x3de0070e, 0xbdfcb14c, 0x3d7b54d7, 0x3e166189, 0x3d70b0e1, 0xbdb3b341, 0x3db6f995, 0x3e23855b, 0xbb54fdd0, 0xbd991668, 0xbe4869fd, 0xbc355b9f, 0x3f566066, 0xbe18fcd8, 0x3d509554, 0x3c176034, 0xbf4b5997, 0xbf1cfa91, 0xbd3f5375, 0xbe883293, 0xbe968855, 0x3b3ca62f, 0x3ddca8d6, 0xbe6a6688, 0xbc04212e, 0xbe173cf0, 0xbd94c5d7, 0x3de38f06, 0x3d6e60af, 0xbde12174, 0xbdbdace3, 0x3d58c73a, 0xbda1d24f, 0x3e66c1aa, 0xbbcdbaff, 0xbd2b4b94, 0x3e79b05e, 0xbb430e83, 0x3dca854d, 0x3e79d1ad, 0x3e3c0aac, 0x3f0565c2, 0xbd6b5c10, 0xbecd0387, 0x3f1ff45a, 0xbf1c2260, 0xbf3d8d0e, 0xbe50656c, 0xbda8dca0, 0xbe0db32f, 0xbdf94736, 0x3e0b21f3, 0x3d8c2a12, 0x3e3d5df9, 0xbda089f9, 0x3d15f887, 0xbe16d405, 0x3d62859c, 0xbc09b2f6, 0x3c4aedb9, 0x3e787f0a, 0x3d4422f2, 0xbd307049, 0x3e3c47a5, 0x3dc7370f, 0x3e56ff28, 0x3e49cc73, 0x3e913399, 0xbed4fdc8, 0x3f2d9bf5, 0x3e2add35, 0xbeee60cd, 0x3d722b6f, 0xbf37b42f, 0xbf6a7d04, 0xbe5d87db, 0x3ea09e35, 0x3bf53c34, 0xbb853a2b, 0x3da98219, 0x3d028b28, 0x3da38f2a, 0x3dc6cf7f, 0x3ddd7dd5, 0xbe1c0352, 0xbd6b9326, 0x3e31993b, 0xbd7c7d44, 0x3a0d4687, 0x3dffab9c, 0x3d7e3294, 0x3cbbb2d9, 0x3c914605, 0x3e791270, 0x3f0c5027, 0x3d01d5a5, 0x3e8023fd, 0x3f27185a, 0x3d917e6c, 0xbe18e65b, 0xbcfacc6c, 0xbf63bca7, 0xbf0ddde7, 0xbe1d3e13, 0x3d04dba0, 0xbd20962a, 0x3e206e77, 0x3c563b20, 0xbcdc90f5, 0x3d5898cd, 0x3ca70371, 0x3dfa7773, 0xbe50da79, 0xbee6f37e, 0x3d35742b, 0xbcecb9d9, 0xbd9fd930, 0x3dba21a2, 0xbdb85069, 0x3db2a0b7, 0xbd9d97ca, 0xbe45a51d, 0x3f77b1c6, 0x3f7edf92, 0x3e961135, 0xbf46324e, 0xbd9429b4, 0xbdb0fe44, 0xbe121f77, 0xbf1bb798, 0xbe22775e, 0x3d7e0226, 0xbd50257e, 0x3d1180e3, 0x3e27154d, 0x3eae612b, 0x3e36e61c, 0x3e00a707, 0x3ea3d298, 0x3e34c553, 0xbd1ca416, 0xbedcbb1f, 0xbe586145, 0xbe4d055a, 0xb9e9a752, 0xbe4f239f, 0xbb92aa23, 0x3e53a1e8, 0x3e0ca08d, 0x3e213603, 0x3f119912, 0x3efd5ffe, 0x3f2a5f3c, 0xbf2ec494, 0x3c849a4b, 0xbc90ab47, 0xbd80fa20, 0xbf193119, 0xbeb4e4d7, 0xbd9bc68d, 0x3e769079, 0x3ead9874, 0x3d128359, 0x3db725ff, 0x3d07334b, 0x3da76289, 0x3dfce91e, 0x3ea0563d, 0x3d8e164e, 0xbe4bcd87, 0xbdd21498, 0x3c143aa7, 0xbe245d4c, 0x3c8a65f7, 0xbe0d0f7d, 0x3d9afd3f, 0xbe5cdb46, 0x3e4df329, 0x3e815d91, 0x3f857d5e, 0x3f8d2c39, 0x3df9d503, 0x3d1add50, 0xbd695a6c, 0xbe4da5ad, 0x3ea4ceea, 0xbf073327, 0xbe09df5c, 0x3dd8676f, 0xbd5b9945, 0xbdc47520, 0x3d1f1bdd, 0x3e126b90, 0x3d8c71fb, 0x3dd0bfbc, 0x3e958f5a, 0xbe13b602, 0xbdf154f0, 0xbe0c82ea, 0xbd900bbb, 0xbe00ac0e, 0xbd916212, 0xbe6de9a9, 0xbe17b3b9, 0xbe962dce, 0x3db41ee3, 0xbf133747, 0xbe6447c5, 0x3f1a58c5, 0xbe926ae2, 0x3d6f6598, 0x3d9714b5, 0xbd791572, 0x3e8598dd, 0x3df8f615, 0xbe09b657, 0xbe4d5dd1, 0x3daf30a8, 0x3da6cd50, 0x3d40df71, 0xbcba84ab, 0x3d9800f9, 0x3e2b4086, 0x3dd1146e, 0xbe8bd358, 0x3ba3faf9, 0xbe683c61, 0xbe88c02f, 0x3c5ce500, 0xbd83a7a0, 0xbe14b0ba, 0xbd5d1cee, 0x3dd3c42f, 0x3e4ac2e3, 0xbf235fdb, 0xbf109883, 0xbe305885, 0xbe816cf8, 0x3f29a005, 0x3c57a4ec, 0xbdebaa26, 0xbea5e4c6, 0x3d4ef7a9, 0xbdcd091c, 0xbe28c4ac, 0x3dacbc20, 0xbda60bb2, 0x3d4a59b2, 0x3e419e79, 0x3cdab7c3, 0x3d153665, 0x3db7dee2, 0xbd693839, 0xbd202b80, 0xbd9104d0, 0xbd763e60, 0xbe946493, 0xbe5ac18c, 0xbcb34fec, 0xbcf5c772, 0xbca869d0, 0x3da925ff, 0xbe00d735, 0xbed4531a, 0xbf85721d, 0xbe72d58e, 0x3eafba83, 0xbd02cb25, 0xbd211504, 0xbeb76e99, 0x3ec3eb74, 0xbdba241a, 0xbe5e9cab, 0x3dc910db, 0xbd6ddcd6, 0x3e029397, 0xbdc9e200, 0xbd9f0b59, 0x3dc1ac1f, 0xbd9ddb47, 0xbdfb299a, 0xbdb7f001, 0xbd930e30, 0xbe2bbf01, 0xbd89b39d, 0xbe3ed0dc, 0xbe73ff55, 0x3d6a3ff8, 0xbe15697a, 0x3dab1fd2, 0x3f63eabc, 0xbee21678, 0xbfb1f761, 0xbd958f29, 0xbf1fbe39, 0x3cd4d3eb, 0xbe2a9520, 0x3e353435, 0xbe89d844, 0xbead547f, 0x3d9b14fb, 0xbe6ef03c, 0x3d6ba378, 0x3dadaf06, 0x3ae07cb5, 0x3a930d0e, 0x3def2e16, 0xbc8f9fb6, 0xbd0f43f5, 0xbdbe76b0, 0xbe858901, 0xbe9c9c30, 0xbe483cc8, 0xbc8cfd52, 0xbe30824d, 0x3e67b188, 0xbda868f4, 0x3c282dc7, 0x3d30f9a1, 0xbeb5446e, 0xbfadc703, 0xbcc447ac, 0xbd362ef1, 0xbd48417c, 0xbeb1dee4, 0x3da76fe3, 0xbdbee62b, 0x3e97bebe, 0x3e0f0142, 0xbcc70a7e, 0xbe771255, 0x3c5ff08b, 0xbc805612, 0x3b71307c, 0x3e025312, 0xbe564d4e, 0x3b859b7e, 0xbe1b517e, 0xbd2805b5, 0x3d24d4ae, 0x3caffc60, 0x3ddae881, 0xbc485a37, 0x3e6ad394, 0xbe3b5846, 0xbe53769e, 0x3d900d53, 0xbf3751f6, 0xbf517647, 0xbe7cf6d7, 0xbd5c2600, 0x3abbb35a, 0xbe31f905, 0xbeb5d844, 0x3e0d34c2, 0xbc311f3c, 0x3eb3ecc5, 0x3ddd6ee5, 0x3ced39ba, 0x3e175623, 0x3c956e85, 0xbd7c6835, 0xbcb78baf, 0xbe5379e0, 0xbd7a3d44, 0x3daab8c9, 0x3c155ee2, 0x3b1181aa, 0xbe18a557, 0xba85e08a, 0x3cc3d02d, 0xbe43caef, 0x3daf1aab, 0xbe584626, 0xbc943484, 0xbefc7f92, 0xbe49d268, 0xbd9b04b9, 0xbcaa81cc, 0xbd88899c, 0xbe060854, 0xbe822ca9, 0x3e2e6c4a, 0xbe313d15, 0x3dca90d2, 0x3ddc4dd8, 0x3e9917d3, 0x3d629def, 0x3df3bea8, 0x3c8cc3cc, 0x3c0c75b8, 0xbe1137a6, 0x39fac34c, 0xbd5ff75c, 0x3dfe1df8, 0xbc3f6579, 0xbd99788f, 0xbd87eae1, 0xbd7c859b, 0xbe20efbd, 0x3ea2b6d5, 0xbd4decd0, 0x3d8f1fa7, 0xbf5112bb, 0xbf0ed870, 0xbddce9a3, 0xbd676028, 0x3cd601d9, 0x3dd115bc, 0x3d5cc24b, 0xbc487f92, 0x3d47c3f4, 0x3de550cc, 0xbd569c68, 0x3e78ae33, 0x3d972197, 0x3e77a332, 0x3e418194, 0x3e338686, 0xbdcc1610, 0xbe72e6fa, 0x3e1d1649, 0xbddc5e27, 0x3e0e8340, 0xbdb0c55c, 0xbc258750, 0xbe12e1bc, 0xbbb1eab9, 0x3e908eae, 0xbd9e1e66, 0xbdb56b83, 0xbf184b60, 0xbe8c961b, 0x3e5afef9, 0xbbfc0f60, 0xbdc8cafe, 0xbe70926a, 0x3ea3cb15, 0x3e51ce46, 0xbdd62b6c, 0xbd585ec1, 0x3d07b518, 0xbc583a04, 0x3d81f366, 0x3cbc83ba, 0x3e166050, 0x3e10fed9, 0xbcfd211e, 0xbe08563e, 0xbe05e71a, 0xbe012daf, 0x3bc0eac8, 0xbdb91997, 0xbdfb4655, 0x3ddc42a6, 0x3e142158, 0x3e938349, 0xbe75a920, 0xbf2d4070, 0xbf23eb30, 0xbc8a8118, 0x3e2242c8, 0x3da09e6c, 0xbd957ca9, 0xbe91cc64, 0xbd8fc96e, 0xbe903888, 0xbd20f7a2, 0xbcf17882, 0x3d786409, 0xbd61df9d, 0x3c69ab34, 0x3c9cc4a5, 0x3dabacf7, 0x3e16beae, 0x3ec02cf1, 0x3d6844cc, 0xbb4bfe5e, 0xbde34087, 0xbd2bc7a8, 0x3d836b74, 0x3d51f553, 0xbe460e0a, 0x3d86161a, 0x3e7763ab, 0xbe1e4fb5, 0xbea6996c, 0xbea2c403, 0xbe0a5b32, 0x3e75b099, 0xbd87ae19, 0xbd4769e5, 0x3ee5444a, 0x3e84757a, 0xbe44ce53, 0xbe338457, 0x3c9e7177, 0xbcad421d, 0x3e238142, 0xbd05c1dd, 0x3dcc9516, 0x3dff0f94, 0x3df3edcd, 0x3e75e666, 0x3e57fb40, 0x3df5c9e0, 0x3dfc39f9, 0x3da19935, 0xbdeab95b, 0xbde771c2, 0xbe85c63d, 0xbdf6b1c8, 0xbdaaad9f, 0x3e5772c3, 0xbe1b3c83, 0xbe903077, 0xbf2adffc, 0x3bc4b180, 0xbd309fb2, 0x3cba91fc, 0xbd8e8cfb, 0x3eeb654e, 0xbe0452df, 0x3d18afe9, 0xbdf1de68, 0xbe1bfd4f, 0x3d8b33cf, 0x3e0b36a3, 0xbcfb47ca, 0xbbf5b154, 0x3e287b31, 0x3dd38847, 0x3d5e2abd, 0x3e39e683, 0x3e1233c9, 0xbdf53a6f, 0x3e8a5372, 0xbde21ddf, 0x3eb02700, 0xbf017029, 0xbdfaf179, 0x3c9e88a3, 0x3f22a23b, 0xbf8f954e, 0xbf7eacd6, 0x3c60f678, 0xbc1ac598, 0xbcd3abc0, 0xbc41dd42, 0x3ed93f16, 0x3e7b77a1, 0xbf37e5ff, 0xbdd922c2, 0xbe638872, 0xbe944aab, 0xbdfe0c43, 0xbd363d6b, 0xbca02689, 0xbdacb047, 0xbc06b92a, 0x3d13e952, 0x3e59eacb, 0x3eb0bfa4, 0x3d27a5ce, 0x3e50383e, 0x3ed09947, 0x3d39c92a, 0x3d417ca0, 0x3e921cd3, 0x3ca4a191, 0x3f620553, 0xbdd1750a, 0xbdd14fc1, 0xbc562518, 0xbd87e03c, 0xbbed10b0, 0xbcead810, 0x3bc40a40, 0x3d02434d, 0xbf1f8848, 0xbf5e29b7, 0xbf191e74, 0xbeeb848c, 0xbea4c679, 0xbe66cf9e, 0xbe134ab7, 0xbe4b75a2, 0x39cd43b6, 0xbf160718, 0xbf07f005, 0xbe24d681, 0xbea42395, 0xbe6519d2, 0xbe70a3eb, 0x3c71a6dd, 0x3e43d9bc, 0xbdfefdc0, 0x3f25222b, 0x3b9abf51, 0x3dac762a, 0x3d7a63fc, 0xbb733680, 0x3d1f5718, 0xbb93c660, 0x3d0e36a2, 0x3d97fb3c, 0x3cecc6f3, 0xbd11370e, 0xbe1e78a9, 0xbdb8edd7, 0xbe39ac2c, 0xbd8f6a11, 0x3dd9b8d7, 0x3ea984c1, 0x3e388b06, 0x3dd2fb79, 0xbe99af32, 0xbe523b87, 0xbe715475, 0xbe8be51d, 0xbdf00e25, 0xbe74c938, 0xbefe8f42, 0xbf246ea2, 0xbf1a5e6a, 0xbe0c11a4, 0xbd910be2, 0xbc5c19e8, 0xbd9540c3, 0x3d2815fc,
	0x3aae2680, 0x3d61dc30, 0x3dafb6a0, 0xbd3c9555, 0xbd131ba2, 0xbd513ec1, 0x3d0518ea, 0xbcc4ef8a, 0xbd2b45b5, 0x3da2e682, 0xbd8638a6, 0x3cff46bc, 0x3eda832f, 0x3e891b19, 0xbe13cc79, 0xbd8f4be2, 0xbd49c472, 0x3cdf2cb8, 0xbd948efd, 0xbcef37a2, 0x3b810630, 0x3d4792a0, 0xbd7f1788, 0xbd00408d, 0x3d20634c, 0x3b117de0, 0x3cb5f7cc, 0xbccda04c, 0x3cc28734, 0xbd760f36, 0x3d3428e0, 0x3d122624, 0x3e5ba43d, 0x3e5e95b0, 0x3dad5f66, 0x3d275a49, 0x3e82ce2e, 0x3ea37b45, 0x3e97dbf0, 0xbee6714a, 0xbe92bcc1, 0xbec1a606, 0xbefcadc0, 0xbf2be937, 0xbf8ac05d, 0xbec582c2, 0x3f9ee612, 0x3f2361d3, 0x3ef234fc, 0x3e6b4fe2, 0xbcecc1a6, 0x3e2e2b8f, 0x3d05d5cc, 0xbd83d07c, 0xbd83480e, 0x3cf57758, 0x3da42a6c, 0xbd1bc685, 0xbc3dc5b9, 0xbf1a7804, 0xbe929b5c, 0x3f18a226, 0x3f0f14f0, 0x3d05e606, 0x3e6db4d9, 0xbc86ac78, 0xbc864c42, 0x3e316fd4, 0x3e39e092, 0xbd10fef6, 0x3de1e1e1, 0x3d59dddd, 0x3ea37951, 0x3ead1f46, 0xbea2ca16, 0x3e9eaf58, 0x3e7e70e9, 0x3e8457c0, 0x3e80acf4, 0x3f085d95, 0x3f110e70, 0xbbbc16b4, 0x3d8e9554, 0xbd432692, 0xbd5fa5cf, 0x3d8a6692, 0x3c61717a, 0xbf0d13d2, 0xbf754447, 0x3f0e60af, 0x3f510d52, 0x3e5ede62, 0x3e9becb9, 0x3ea93fe4, 0x3e7092ae, 0x3ecca540, 0x3c68cf77, 0xbdb091f1, 0x3e806987, 0xbac9ee45, 0xbd8255f8, 0xbd23e78f, 0xbe235148, 0x3ea0c5a0, 0xbd8e1127, 0xbda411b1, 0x3db398be, 0xbd970d9c, 0x3e643bf3, 0xbda2edd3, 0x3ee54990, 0x3ceb7aa4, 0xbd9ff7f4, 0x3d4634e0, 0x3d9a3fd1, 0xbf0a6d6f, 0x3f2dc36b, 0x3e56b1f3, 0x3e194457, 0x3e8cbebd, 0xbe83ea5f, 0xbdd37451, 0x3d81464f, 0xbe92b7e4, 0xbd9eefb2, 0x3cc3c747, 0xbd8a4e3e, 0xbea9ad7b, 0x3e0d9671, 0x3e241902, 0xbdb37946, 0xbd5488fc, 0x3e8fa095, 0x3dd54c4d, 0x3e3865c7, 0x3f177e46, 0xbe40fd41, 0xbeae6400, 0xbf26271d, 0xbdb4b61c, 0x3d142208, 0xbd45a34e, 0x3f10e903, 0xbf8db0bf, 0x3e032601, 0xbebb002f, 0x3db0762f, 0xbdabc486, 0x3ea7c3c4, 0x3e9d631e, 0x3d424809, 0xbe1da2d2, 0x3da17374, 0xbdedac05, 0xba8a2194, 0x3cb95934, 0xbe969a36, 0x3d81489b, 0x3e12b81a, 0x3ded0643, 0x3d953637, 0x3e189e24, 0xbe2b96d3, 0x3f040c37, 0xbd1967e2, 0x3cb8b055, 0xbf124e58, 0xbdae22b8, 0x3c19cfa8, 0x3d85d830, 0x3ec42886, 0xbebe7e0c, 0x3eccdf5f, 0x3e0731f7, 0xbea71fcb, 0xbd83c16a, 0xbdd7bb60, 0xbba168ac, 0xbe6f2246, 0xbcd5aeab, 0xbe0434c3, 0xbe5274a1, 0xbdca0256, 0xbddecd96, 0xbe8fedcc, 0x3e74537d, 0xbe931b6d, 0xbe8d576c, 0xbe20bc70, 0x3c78e3a7, 0xbcc8fbdf, 0xbd0a8ee4, 0xbe4c1b87, 0x3d8736f5, 0xbe17dcf4, 0xbf483878, 0xbd339937, 0x3d2baee0, 0x3d2a7baa, 0xbf222457, 0x3d7c4bb8, 0x3e5d2093, 0xbd1ec042, 0xbca185a9, 0xbe0222b8, 0x3c4efe3e, 0xbe4e2264, 0xbe14efa9, 0xbe3985e5, 0x3ced51e6, 0xbe681767, 0x3d096d70, 0xbe0d3397, 0xbdc3b28c, 0xbe756d0d, 0xbdc198bf, 0xbdc3fd65, 0xbe6d1bf3, 0x3df61eb4, 0x3cedd659, 0x3e40aa8a, 0xbecb8f90, 0x3e4a07d9, 0xbf6183f7, 0xbf4093e4, 0xbf26cca4, 0xbead8177, 0xbdd45188, 0x3e7c7dd6, 0x3e054b7e, 0xbdd21525, 0x3ccb5c8f, 0xbe1b4fbe, 0x3c9894ce, 0xbdad9ae8, 0xbd82b3ac, 0xbd950bb8, 0x3ae0e93d, 0xbe3fe877, 0xbd983967, 0xbe7cd5f8, 0xbe26079b, 0xbde565f6, 0xbe27a6f4, 0xbe45b73e, 0x3ca8e056, 0xbc74558c, 0xbebbba0d, 0xbeb4841c, 0x3d29b7c1, 0x3de353e4, 0xbf45b4db, 0xbd3f2596, 0xbee64285, 0xbf2ff97f, 0xbe097e12, 0xbced782c, 0xbb621ee0, 0xbda6a2ad, 0x3dfbe46d, 0xbe89f055, 0xbd6076f4, 0xbcdac207, 0xbe2a6a94, 0xbdc918ce, 0xbdbcd73a, 0xbe0e95b4, 0xbd94ef54, 0xbe28a427, 0xbe51799c, 0xbd3ffbdf, 0xbd629bd7, 0xbd482d97, 0xbdec86d8, 0xbe3a9475, 0x3c85a7d7, 0xbeec9d14, 0xbe8f56b5, 0xbdfe6851, 0xbf2893af, 0x3c06860b, 0xbe01f4bc, 0xbf86abca, 0xbf1276df, 0xbe64ac28, 0xbd61d149, 0xbe3b486c, 0xbd7d5ff0, 0x3e4d5aa7, 0xbdf84161, 0xbdd2367f, 0xbe1b1bc6, 0xbd33b578, 0xbd236df5, 0xbead07c2, 0xbe3f19bc, 0xbe867520, 0xbdd28c33, 0xbd8cf6fc, 0xbe119c0d, 0xbdb65996, 0xbe2854a8, 0x3d850ca2, 0xbe8c3be0, 0xbe95b5c9, 0x3e177447, 0xbf7649fe, 0xbf07b1b8, 0x3d1d2cbc, 0xbf69faef, 0xbf0a4c72, 0x3d88c665, 0xbd8e50c8, 0x3ebaecc6, 0xbdd7a0f5, 0x3c02e2c6, 0xbdbc1da6, 0x3d876e43, 0x3d8ae91b, 0xbe4aca40, 0x3dc019af, 0xbead7c88, 0xbe9086c9, 0xbe23b74d, 0x3e280ca7, 0xbb22213e, 0xbd10d21d, 0x3c002f9d, 0xbce8e4d1, 0x3d33e308, 0xbe468bb5, 0xbe698e1c, 0xbf08c1a4, 0xbf41ca0a, 0xbf2466cf, 0xbec4f749, 0xbd8ad749, 0x3ebf9d34, 0xbe69a65f, 0xbf0f33f8, 0xbeaa01ec, 0xbe238396, 0x3db31138, 0x3db8a310, 0x3da304f6, 0x3d8197a7, 0x3c25e9a3, 0x3e4ded7d, 0x3e45926f, 0x3dd9ed95, 0xbdfe588c, 0x3d176a9e, 0x3ddbe2af, 0xbd99c1bb, 0x3d24f19c, 0x3e1addea, 0xbda7e7b4, 0x3e318737, 0xbc5c6036, 0xbc4e59a7, 0x3edb393a, 0xbf59f7a0, 0xbf9c67e3, 0xbeba1664, 0xbd85a7fb, 0x3e91d103, 0x3e2ed660, 0xbf2357f4, 0xbea216f2, 0xbb671f67, 0x3dc4adb5, 0x3e35d6d6, 0x3e0d0990, 0x3e0d2df2, 0x3e86e318, 0x3deb04b5, 0x3dcdf46e, 0x3bdd702b, 0xbc75b1d0, 0x3dcf80ac, 0x3dac2ce9, 0x3df2c2fb, 0x3e22c737, 0x3c6e5989, 0x3bc12313, 0x3da4cb19, 0xbe49ae74, 0x3e5b91ce, 0x3e2cc026, 0xbedf60cd, 0xbf48cc76, 0xbd738417, 0x3d3cf067, 0x3f305bfe, 0x3e2efb72, 0x3eaaf94a, 0x3f3379e4, 0x3d5c296c, 0xbd1a79e8, 0x3e48c4da, 0x3dc7aac3, 0x3d286cba, 0x3de1b810, 0x3e9c85da, 0x3d4653d8, 0x3d9fc8f5, 0xbce303c1, 0x3d805107, 0x3e608305, 0x3e09d5e3, 0xbd92d109, 0xbb894864, 0x3d034b03, 0xbdd37446, 0x3e823255, 0x3dc107d4, 0xbed32487, 0x3e67b5b4, 0xbf80e298, 0x3bf1da01, 0xbd646a59, 0x3f159ed3, 0x3edaaced, 0x3e99239a, 0x3ce4b559, 0xbe8f30db, 0x3e35caa2, 0x3e2bf7ec, 0x3db84afc, 0x3e2844ae, 0x3e1d0c9d, 0x3e7b198d, 0x3dffca34, 0x3d0f1771, 0xbcc03bb8, 0x3e0aec54, 0x3e254c85, 0x3e807e16, 0xbe409043, 0x3dbe0e05, 0x3d7fc9e7, 0xbe56e090, 0x3ea1b188, 0x3c9da63f, 0xbf1d7544, 0x3d90b564, 0x3c950f8f, 0x3d312589, 0xbd83fffb, 0xbc6f540a, 0x3cb34171, 0xbe59e652, 0xbeb7a75a, 0xbde32bb2, 0x3e28e784, 0x3e2a380e, 0x3e05161b, 0x3dda2762, 0x3dbd1374, 0x3e9dd14a, 0xbcd0302e, 0x3d0caf4c, 0x3e386be3, 0x3e6f1c69, 0x3e12f220, 0x3d7ba371, 0x3d5e87f8, 0x3d94833d, 0x3e6eb1d1, 0xbde1b706, 0x3d4efc7d, 0x3deb8f84, 0x3c7359af, 0x3e5e5ffe, 0xbf41c480, 0xbf4e9a6f, 0xbd8e007e, 0x3cfa55cb, 0x3e0f29c0, 0xbe4145c5, 0xbdaaa440, 0xbdd20315, 0xbd4e387d, 0xbd621b24, 0x3e686822, 0xbd3465f4, 0x3e4e08ff, 0x3e3e5ba8, 0xbe269adc, 0x3dcecbb4, 0x3e36a1a2, 0x3e0ddda6, 0x3dc45b26, 0xbd7a9dd3, 0x3df8075e, 0xbe2a12e5, 0x3d5d9506, 0x3ea9a530, 0xbd745bda, 0x3d1df0f7, 0xbed85358, 0x3e5a6bb9, 0xbef54a65, 0xbf91cddb, 0xbee79757, 0x3d811e14, 0xbf02c244, 0x3e994fb8, 0x3d8be3b6, 0xbe5de484, 0xbdd1c381, 0x3c38de37, 0x3d7122a3, 0x3d9a7cb1, 0xbe21a17a, 0xbdc6347a, 0x3dd6b418, 0x3d8fcb63, 0x3d26cae0, 0xbd88ccbc, 0x3d36e434, 0x3d119b8d, 0xbbc628f1, 0x3e0b0b72, 0xbd8a30e1, 0x3e510a53, 0xbe8ff4bb, 0xbe631dc0, 0x3ab10228, 0xbdd57321, 0xbed4c6f3, 0x3e9637a0, 0x3d984d6f, 0xbf8e8614, 0xbf871196, 0x3e1d6193, 0x3e959c81, 0xbe210ad7, 0xbd9e2fbc, 0x3d2d8b53, 0xbd926513, 0x3d24c527, 0x3dbf7a58, 0x3ed3804e, 0xbd90586f, 0xbdcc1014, 0x3d82135b, 0x3e198027, 0xbd1ce31a, 0x3c93374d, 0xbd6520bf, 0xbdb60656, 0xbdb4a06e, 0x3e58847a, 0xbe95d73e, 0xbc76ee46, 0x3e8fde85, 0xbeef6917, 0xbedccc50, 0x3c9da5c0, 0x3c19ba08, 0xbe8fb3f6, 0xbf31dc21, 0xbdc7e12d, 0xbd9561f5, 0x3d8b8726, 0xbc893abc, 0x3d1ad440, 0xbec71f27, 0xbe1601f0, 0xbd74d38a, 0xbdc2db50, 0x3d8aee49, 0xbdd67f99, 0x3db9a2d8, 0x3e3d5a5b, 0x3e5c6da0, 0x3cae5853, 0x3e082642, 0xbdce80c5, 0xbe8afd79, 0xbdc84a48, 0xbebafbd0, 0xbe534425, 0x3afb03bd, 0xbe5d8923, 0x3f032bdd, 0x3c871923, 0x3d9576ff, 0xbc91f158, 0xbf2fdea5, 0x3d6e1144, 0xbe2b50c0, 0x3ec2e4bb, 0xbec33378, 0xbeaf7dc7, 0x3e31f660, 0xbcfaa744, 0xbdbc47f7, 0xbd63c047, 0x3e84ae52, 0x3e5049b6, 0x3db35087, 0xbd64e5ac, 0xbd689c14, 0x3d395a26, 0x3cee1796, 0xbde35832, 0xbe4869c9, 0xbe9c2106, 0xbe96ac4b, 0xbe40ad5c, 0x3ab1de0d, 0xbe1a7107, 0xbf5cde83, 0x3d2f1f6c, 0xbc8a2a03, 0x3c35f132, 0x3d70223e, 0x3cfd6001, 0xbeed6d3b, 0x3d8c3149, 0xbf197d99, 0xbeff6627, 0xbebb9d5d, 0xbe11ed12, 0x3dc1fbf8, 0xbddeecc5, 0xbe555498, 0xbe1372fd, 0xbe951dfc, 0xbe30f3a4, 0xbd195933, 0xbe55ba09, 0xbe33342b, 0x3c06c877, 0xbd8fae82, 0xbd222802, 0xbe0c4dc6, 0xbea0693c, 0xbe9ba87c, 0xbeb9d14d, 0xbe9a10e9, 0x3d0013d4, 0xbafd5d40, 0x3a945700, 0x3c44474d, 0xbd2b801c, 0xbf1ff1ca, 0xbec5c777, 0xbe02c674, 0x3e25a810, 0x3bd0c458, 0xbe6eb9d4, 0xbec8a7fe, 0xbdf35a4b, 0xbe7f96aa, 0xbdd7f3b8, 0xbca65612, 0x3943765f, 0xbe792cbd, 0xbd7c1a70, 0x3db49840, 0x3dfe3d6d, 0x3ebb7e71, 0x3e8fdb42, 0xbd4d2d89, 0x3e510583, 0xbc9133f4, 0xbc8f3b88, 0xbe08c64b, 0x3d9a88d0, 0x3d7bd468, 0x3a8258c0, 0x3cee0db9, 0xbe7e7d8b, 0xbeceec79, 0x3eb3e496, 0x3ed4a774, 0x3c112911, 0xbe7b0bbd, 0x3e091c74, 0x3d092ee4, 0x3d958938, 0xbc4d8112, 0xbd3e7ae9, 0xbb9da59c, 0xbe17e092, 0x3e4d290e, 0x3b82af08, 0xbd948183, 0x3d8e2f5a, 0xbdfefbf9, 0x3e142fe1, 0x3ed91a78, 0x3ed6040f, 0xbe4a96a6, 0x3f5316b5, 0x3edb10ec, 0x3d3563f0, 0x3c740b90, 0xbc9a5010, 0x3ed93d1d, 0xbe30bae0, 0xbe8eb3fe, 0x3c7180d5, 0x3e109f3f, 0x3df1228f, 0x3e6dba40, 0x3d84ed0e, 0x3e18d53c, 0x3d63627d, 0xbc4c2137, 0xbdcf5993, 0x3d999278, 0xbd097a6a, 0x3cfadc4b, 0xbe1b9629, 0x3e871d03, 0xbe882a29, 0x3e4022a1, 0xbca56e3e, 0xbdf534af, 0x3e9463f5, 0xbf6592f3, 0x3f279665, 0x3eccac0b, 0x3daa3aaa, 0xbd8b9e3e, 0x3d2d9df8, 0xbdace846, 0x3eb86b11, 0x3ea82ded, 0xbdfe13bb, 0x3e3cf047, 0x3d33c026, 0x3e25c2ec, 0xbe17a004, 0xbd999a44, 0xbdb69f5f, 0x3e0add08, 0xbce7241f, 0xbd05f97a, 0xbe906598, 0x3c2d6b54, 0xbdd52fe5, 0xbe74dc1a, 0x3d905710, 0x3dbef129, 0xbf209f0d, 0xbf85b275, 0x3e63c1f8, 0xbe2f0866, 0xbd126cdf, 0x3d28f834, 0xbb736100, 0xbd8aa020, 0xbcb5b3bc, 0x3d64c6e8, 0x3d73b87c, 0xbd369597, 0xbd36f96e, 0xbe7799d0, 0xbea061bc, 0xbee12aad, 0x3d99f4ef, 0xbdbc72dd, 0x3c603bcc, 0x3cf51a57, 0xbeb84372, 0xbe20ff57, 0x3e8c6c3c, 0xbe27dba0, 0xbf088964, 0xbe2ed43d, 0xbdc03d8e, 0xbe81d68c, 0xbf1b1217, 0xbf22d7d1, 0xbc81eb3c, 0xbcc5057a, 0x3d9eadc8, 0xbd057cac, 0x3d8e0aec,
	0x3d722f38, 0x3c5dbb68, 0x3da9ce6c, 0xbc84d65c, 0xbcd708ce, 0xbd6d8bc8, 0xbd6d5976, 0xbd987db8, 0x3c9ac278, 0xbd39b93f, 0x3ce08448, 0xbd8cf0f8, 0x3d6ebb9a, 0xbbfdc6cc, 0x3c00ec58, 0x3da77894, 0xbd32cd2c, 0x3d9eea9c, 0xbd95f9e9, 0xbcac0868, 0x3cae33b4, 0xbd277b5e, 0x3c7ed088, 0xb9b46600, 0x3c973e94, 0xbd620486, 0x3bb329e0, 0x3d8e7b50, 0xbd212f3d, 0x3d651b7c, 0xbd5b74a0, 0xbd994a8d, 0xbd26fa38, 0xbd989e18, 0xbd2bc0a5, 0x3d997964, 0xbd736c91, 0xbd05d3de, 0xbdbe68db, 0xbd122b3d, 0xbd46250b, 0xbd973efc, 0xbe910018, 0xbe771643, 0xbe83a794, 0xbe094b22, 0xbd7bcf4e, 0xbe852ce2, 0xbef37d64, 0xbef5e39f, 0xbf20b5b8, 0xbe8c0199, 0x3ce16dbc, 0xbda772bd, 0xbd0ffb74, 0xbcdbc830, 0x3d370d78, 0x3ca7f6d4, 0xbd907ec4, 0x3d94077a, 0xbd299297, 0xbd65ba17, 0xbedd78ab, 0xbf0183ac, 0xbe9a69d7, 0xbed8033a, 0xbeb9685c, 0xbeda6ef3, 0xbf1a6292, 0xbf1c2f9d, 0xbf46f45a, 0xbf1df43f, 0xbf337a6f, 0xbdb933f0, 0xbe772248, 0xbf187f64, 0xbeed5209, 0xbf28d585, 0xbf3ee21a, 0xbf3afc5e, 0xbea70d49, 0xbe60109b, 0xbd59cbbb, 0xbd84690b, 0x3d2b479c, 0xbd9fe126, 0x3d972ce1, 0xbded2714, 0x3db0170e, 0xbf14eea4, 0xbeeffb0d, 0xbf972916, 0xbf974003, 0xbf1bcf73, 0xbf4119b2, 0xbf0c2294, 0xbe9f47c9, 0xbef21404, 0xbf790357, 0xbf27b4dd, 0xbee830fe, 0xbf53d623, 0xbd79321c, 0xbe6d9a35, 0xbf0ec97e, 0xbf023078, 0xbefa174b, 0xbf63871f, 0xbf8de0d7, 0x3e0818a7, 0xbe4146b0, 0xbda2ad0c, 0x3d78e3e4, 0x3c91c820, 0x3ef029d0, 0xbe107292, 0x3f026a69, 0xbd3e4f1e, 0x3e79c5e8, 0xbec2a158, 0xbdef3266, 0xbe81c780, 0xbd8cd169, 0xbd53ba1f, 0xbd51d606, 0xbd275c50, 0x3e050f2d, 0xbc8a7772, 0xbdce44be, 0xbe714be4, 0xbddf0139, 0xbdeb23bf, 0xbe85fcce, 0xbe3d9f78, 0xbe3be89d, 0xbe097ec4, 0x3df33086, 0x3e0d318c, 0xbe91c70b, 0xbf6d2066, 0xbceef238, 0x3d797584, 0x3e21a40d, 0xbea00eae, 0xbc57b2e9, 0x3e2a5790, 0xbda5668c, 0xbd04deea, 0xbe40f148, 0x3bcba2e0, 0xbe38ff67, 0xbe5c3854, 0xbd8cb547, 0xbe3f51a8, 0x3c43e282, 0xbd94089c, 0x3e06dfaf, 0x3dd69d94, 0xbd829b61, 0x3c829a46, 0x3e2b8fb1, 0x3e2b3596, 0x3e595e40, 0xbd717125, 0x3e04f668, 0xbe4a2cc0, 0xbdbeff43, 0xbf51b00a, 0xbd0a73da, 0xbcb9c493, 0x3ed63550, 0xbf324983, 0x3e096c71, 0x3e714035, 0xbd013188, 0xbe282623, 0x3d193f8b, 0xbe351051, 0xbd089d3f, 0xbdf3197d, 0xbd9eb469, 0xbe0be75e, 0xbdf1a680, 0xbc844277, 0xbe2aaa4c, 0xbe6d5cf8, 0xbe213dc7, 0x3d48f97f, 0xbd62dfc7, 0xbd97d781, 0x3d20d163, 0x3ec84538, 0x3f0f9422, 0x3e7beda6, 0x3eddc5da, 0xbdf87417, 0x3bc86dd0, 0xbf85b89c, 0x3ea02ae6, 0xbf5eece6, 0xbddafc45, 0x3da84eb2, 0xbde948ce, 0x3d3c856f, 0x3ea4e548, 0xbdb6a8ac, 0x3d291768, 0xbdb09b74, 0xbe27a04e, 0xbdc21bda, 0xbe04aed4, 0xbdf682ef, 0xbe18d06e, 0x3d17fa3d, 0xbcd3a8da, 0x3dbea5b4, 0x3c7cb7cb, 0x3e0adbc2, 0x3eaa3433, 0x3e12fbd2, 0xbcf15fef, 0x3e9e1f14, 0x3e2defdb, 0xbecb55d0, 0x3da7aee0, 0xbf6c9ce0, 0xbd7df89e, 0xbe821742, 0xbdb6d340, 0x3d846324, 0x3dfadde4, 0xbdc17284, 0xbdab3d35, 0x3d8ef256, 0x3c84c5b3, 0x3cab9852, 0xbb779a4a, 0xbda0467e, 0xbdc26b24, 0xbd1ec66c, 0xbd65e3b0, 0xbe0c398a, 0x39ba9161, 0x3cc1a9c5, 0x3cb931ca, 0x3c8ca0f5, 0xbdfbcbf9, 0x3d6b0aed, 0x3e0c7f86, 0x3f061d91, 0x3e9c1fe6, 0x3f20a83a, 0xbcb11cad, 0xbf6d48f4, 0xbe552b8e, 0xbed9a04e, 0xbe83ad6e, 0xbe75b4d3, 0x3d95840c, 0x3e23c8db, 0xbcff18d1, 0x3d27fda3, 0x3b0b59b0, 0xbd17c8c9, 0xbdf1e749, 0xbe122037, 0xbea6bfb8, 0xbe37aa1c, 0x3da29147, 0x3d12b7d8, 0x3d47231b, 0x3d4b931b, 0xbb2f77dd, 0x3e242485, 0x3e054b25, 0x3cf09d0a, 0x3df77e57, 0x3ea3aa2f, 0x3d9934c8, 0xbf71817b, 0xbd0b85a2, 0xbf1712c1, 0xbf206aba, 0xbe12d233, 0x3ec47931, 0xbdd239b6, 0xbe157069, 0xbd4fd97a, 0x3e2087b5, 0x3cd231cd, 0x3dadc56b, 0xbd631e97, 0x3e0ae914, 0xbcd7c665, 0xbe8c8327, 0xbe47632a, 0xbd8bb4d1, 0x3d8b7762, 0x3c87d8c9, 0x3cb0c69a, 0xbd9c2a07, 0x3dbfde32, 0x3e043f5f, 0xbb6aa8a8, 0xbe7ea5a6, 0xbd2ab94d, 0x3de65b71, 0xbf2ad447, 0xbd160c8c, 0x3db92806, 0x3e8b5fb6, 0xbf45a004, 0xbecc7756, 0x3e6ac8a6, 0x3e20a0db, 0x3d875303, 0xbd9f74ff, 0x3de67863, 0xbb14e986, 0x3d3cfed3, 0x3e41c19b, 0x3e0b38c4, 0x3d70c48f, 0xbdffb31a, 0xbe979d0c, 0xbe582f39, 0x3cf960ac, 0xbc9de10f, 0xbd822dc5, 0xbe870fe4, 0xbda419bc, 0x3e07d503, 0x3e0b65e7, 0x3e5de6d5, 0x3f823fab, 0xbf43309b, 0xbcf32636, 0xbdf2f3ee, 0xbd3d2cc1, 0xbef52b63, 0xbebce471, 0xbb4a28b0, 0x3c3da713, 0x3e2120ec, 0xbdabe281, 0x3e05a341, 0x3de67150, 0x3c31c566, 0x3e0025c7, 0x3e98440f, 0x3e82bd2e, 0x3daa063d, 0xbc1fdb2b, 0xbded4648, 0xbe186cd3, 0xbd1518b6, 0x3dc68749, 0x3db8badb, 0xbe5e6697, 0x3d9e0149, 0x3e19b9aa, 0xbdd569d9, 0x3e283ffb, 0xbf7bd904, 0x3e2000b8, 0xbde3c27f, 0xbf5894d7, 0xbf33b2ca, 0xbeb07393, 0xbd5ffd22, 0xbd61a63c, 0x3e31699f, 0x3e33b701, 0x3e12e042, 0xbbf96966, 0x3d040e3d, 0x3e3ff594, 0x3e24bbaa, 0x3de42979, 0x3e70e47f, 0x3c14f12b, 0x3cd7c112, 0x3dffec65, 0xbcde7404, 0x3df3d9b1, 0xbd33e2a6, 0x3e0a0b24, 0xbd82e732, 0xbef723d7, 0xbeee391e, 0xbe1685be, 0xbea1694b, 0x3d1a133a, 0x3d85e386, 0xbe722627, 0xbe3357fc, 0xbe77dd04, 0x3de78703, 0x3e275101, 0xbdce02b7, 0xbcc4972a, 0xbcaf0596, 0xbb4727cc, 0x3e52bfa1, 0x3e005af7, 0x3e2fdc02, 0x3e9210e6, 0x3d8cbf11, 0x3c1645df, 0x3e00a236, 0xbe0022a6, 0xbd88e962, 0x3d939b8d, 0x3bfaed3a, 0x3dd53b62, 0xbecf3b21, 0xbd8029e9, 0xbeaab1b7, 0xbf0c63e4, 0xbf0a3718, 0x3dbbdbbb, 0x3dbab799, 0x3e70e7f3, 0x3e6ccb9a, 0x3e6965c6, 0xbd8f8b70, 0x3e0e8054, 0x3b805ad2, 0xbd8853ab, 0x3d3f707a, 0x3c861e7d, 0xbd10c54d, 0x3e1ff1f9, 0x3e03f076, 0x3e5b1787, 0x3d69ff9a, 0x3ce5fb5b, 0xbdcaf6b3, 0xbd2a6be0, 0x3e383cc9, 0xbdb9db44, 0xbdd1daf0, 0xbd1010b4, 0xbd4c1a10, 0xbe966056, 0xbe0911cf, 0xbfa1a615, 0x3e4d2c8c, 0xbcb68a00, 0x3dd048b1, 0x3eca7b38, 0x3e649a82, 0xbe8d47c4, 0xbe8264e6, 0xbd9ae832, 0xbd30e212, 0x3d920e55, 0xbcbcaae3, 0x3da9cccd, 0x3d15e8d2, 0x3e35c8a3, 0x3deeac66, 0x3e6bdc97, 0x3e26764e, 0x3da79401, 0x3d26ae2a, 0xba21ea0d, 0xbe11b2dc, 0xbe3c0a20, 0xbdf68980, 0xbdb53b9d, 0x3e5c5404, 0xbd15f6a9, 0xbece88fd, 0xbf33af3d, 0x3e2e9270, 0x3d9032c8, 0x3e82bd64, 0xbf299153, 0xbd458d8c, 0x3b6e2626, 0xbe591355, 0xbcebb79b, 0xbd9b1459, 0xbd1bd0d2, 0x3dc109fd, 0x3d404c2f, 0x3cbb7928, 0x3e008a3b, 0x3e11dd29, 0x3e6ac837, 0x3b8ec55b, 0x3dd1abbf, 0xbe009046, 0xbd8b7861, 0xbe6cc2b5, 0xbe295c55, 0x3da1d76b, 0xbd97e1b3, 0xbc9746d9, 0xbade9080, 0xbf5a2fa8, 0xbe31f730, 0xbdbcd929, 0xbed19681, 0x3e73ee84, 0xbf3c3e38, 0xbf49c1ca, 0xbe9b3d46, 0xbdedaa65, 0x3e6d1983, 0xbd2b4755, 0xbd613820, 0x3d87fb56, 0xbdca2ad2, 0xbdbd5e4d, 0x3cba4802, 0x3e2b8182, 0xbe00142c, 0xbe0fa36b, 0xbe34f58b, 0xbe389862, 0xbe170bfe, 0xbd84faa6, 0x3e289aab, 0xbe29fc68, 0xbddc0cb3, 0xbdd51cfa, 0xbd433405, 0xbf160b63, 0x3eca2589, 0x3e6b0d31, 0x3e1f4743, 0xbebc5614, 0xbf4efd19, 0xbec2573e, 0xbe9d4f9c, 0xbd3e4f31, 0xbc8cb40a, 0xbe4e132b, 0x3d69a53c, 0x3dbb1f37, 0x3c8df694, 0x3d520839, 0xbe9a1ccb, 0xbdb661f0, 0x3c8a5886, 0x3d41816d, 0xbcd387ea, 0xbbbe88d0, 0x3d750d38, 0xbdc98b88, 0x3d9e3b16, 0xbce9a5c5, 0x3d6d512e, 0x3b2cdb6a, 0xbe0d498a, 0xbed05c43, 0x3e784189, 0x3ec0107d, 0xbd671776, 0xbd45e136, 0xbf1799fe, 0xbec05baf, 0xbf050b76, 0xbe1cf046, 0xbe79b4d4, 0x3d8cf9bd, 0xbddfc6ef, 0xbdf264f5, 0xbd424e45, 0x3dc74163, 0x3c47a43c, 0xbcfa9c73, 0xbd4da09e, 0x3c60648b, 0xbb665fb6, 0xbc28a613, 0x3d1f8ccb, 0x3cd54c63, 0xbd444a73, 0xbdaa1df1, 0x3d0a6a6c, 0xbd937a2d, 0xbeafda0c, 0xbde0ff28, 0x3e92b670, 0x3cd38eda, 0x3ed63bb9, 0x3e6365c0, 0x3d2e6e6f, 0xbed48ad4, 0xbeeda76f, 0xbe1b29c6, 0x3de3a005, 0x3ab89cf0, 0x3e1a0f71, 0x3e0f9423, 0xbdd8626c, 0x3cdf65b0, 0x3bdfa740, 0x3d00d288, 0x3d63d745, 0xbc03388f, 0xbe003cd3, 0x3d8d3102, 0xbd8c6764, 0xbe18397c, 0x3dd73bc8, 0x3d89278f, 0x3e2cc45a, 0x3e715ea7, 0xbed115d1, 0xbf011278, 0xbed9bd2f, 0x3d8fbd96, 0x3eaa9833, 0x3e522303, 0x3d1a21d1, 0x3e5d01b6, 0xbdb989ec, 0x3d0a472f, 0xbd9c8f26, 0x3c2285b4, 0xbe4a20ed, 0xbdcf6c58, 0xbdd76999, 0xbd573889, 0xbe22949b, 0xbcb1180d, 0xbd0a06cd, 0x3c121445, 0xbd9d2724, 0x3d90e719, 0xbd3769fa, 0x3dccad06, 0x3db193a0, 0xbe49746f, 0xbe228113, 0xbc58c87b, 0xbeeb9948, 0xbd0b842b, 0xbe1a09a5, 0x3ce5c8a4, 0xbdaaf266, 0xbacdfc00, 0x3e5e3eb9, 0x3e1b1523, 0xbe56d166, 0x3d64a868, 0xbd90b3be, 0xbdefdc95, 0x3d92122d, 0x3d929bca, 0x3d0eea8f, 0x3e2bb6b9, 0x3e543f24, 0x3e158491, 0x3ddd0211, 0x3e1c18b5, 0x3e85c7e9, 0x3e580743, 0xbae0d24a, 0xbda6fdb9, 0x3d0ba768, 0x3db4779b, 0xbdfefab2, 0x3e62eb17, 0xbec5065b, 0xbd8ae020, 0x3ea30456, 0x3c8f4304, 0xbda83009, 0x3d1de2e4, 0xbd826484, 0xbeea0718, 0xbf825616, 0xbf23dca2, 0xbe7d1e82, 0xbe21efb0, 0xbe724e61, 0xbd9e62bc, 0xbe6431ee, 0x3dbb1c8e, 0xbdc210d7, 0xbe64f3e3, 0x3d0c255b, 0xbd7fe525, 0x3d11d3c0, 0xbe7e0165, 0xbc99123e, 0x3eb79715, 0xbdc5115e, 0xbe38a5fa, 0x3cd5f1c5, 0x3d9884cd, 0xbf2ef27f, 0x3d719072, 0xbea740d0, 0x3d88d32a, 0xbc13b130, 0xbcc52fda, 0xbd35ccdc, 0xbd082f66, 0xbf5f4e4e, 0xbf3fca1f, 0xbeb870cc, 0xbf6d2db5, 0xbf21a4ce, 0xbf2b4c2a, 0xbee61d8d, 0xbf32b7fb, 0xbf05d324, 0xbf0f2c83, 0xbeeda33a, 0xbef46718, 0xbeeaab5a, 0xbeb38a3f, 0xbec9e0b2, 0xbeff092a, 0xbefd46bb, 0xbdf9eaa2, 0x3e8e5eee, 0x3e9a83e8, 0x3c45fc25, 0xbe32db0b, 0xbe861b37, 0xbd4b8502, 0x3c109880, 0xbd513c35, 0xbd170cd3, 0xbde1cf6e, 0x3c9f308c, 0xbf396880, 0xbf31cbaa, 0xbef946c4, 0xbdfc7379, 0xbf32523e, 0xbf00b3c2, 0xbec60386, 0xbee022c6, 0xbeed1710, 0xbea2f5ae, 0xbf975e01, 0xbeea693c, 0xbe96f12e, 0xbe91c10f, 0xbf1c9f63, 0xbf6e7058, 0xbe8f2ef4, 0xbe9e06f7, 0x3e74e264, 0xbf182973, 0x3d8b12ec, 0xbd069c99, 0x3c295ff8, 0x3db0997c, 0xbda4b89e, 0xbd392379, 0x3ccf6e60, 0xbd1dcab4, 0xba8b0232, 0xbe9c8c3b, 0xbea68b76, 0xbf0b6a20, 0xbe8c1ebf, 0xbf230ef8, 0xbe9c4e39, 0xbe9841f9, 0xbf35b9da, 0xbf4ca2ae, 0x3df2667e, 0x3eb3c941, 0x3ebebe02, 0x3ec692d0, 0xbee23246, 0xbe2273c6, 0xbe8df4aa, 0xbe734d3b, 0x3c85c8cc, 0x3d1f6d60, 0x3c525108, 0x3d98fc04, 0x3d751224,
