#ifndef WEIGHTS_HIDDEN_LAYER_1_TO_HIDDEN_LAYER_2_H
#define WEIGHTS_HIDDEN_LAYER_1_TO_HIDDEN_LAYER_2_H

static const unsigned int weights_hidden_layer_1_to_hidden_layer_2[] = {
	0xbcddc894, 0xbf2b3fb6, 0x3c1fea01, 0xbd1135e5, 0x3d1f6e90, 0x3f7539ff, 0xbe256ed3, 0x3f2ad60e, 0x3ea6bea4, 0x3e6adeab, 0xbd28af33, 0xbcfcb451, 0xbb9f4cd6, 0x3f303cc9, 0xbf840394, 0xbfe4f291, 0xbd3dc67f, 0x3f1e86db, 0x3bacdebb, 0xbda9bdae,
	0xbe374741, 0xbf4e8f64, 0xbf60cb2e, 0xbff6b36f, 0xc0199517, 0x3d02f290, 0xbd6d4b9a, 0x3e18609d, 0x3d8486fc, 0xbf294947, 0x3e864b32, 0x3e0403fa, 0x3d886a95, 0xbf2995b4, 0xbeb3d90a, 0xbf0b1618, 0x3e0b5c5e, 0x3ee85eef, 0xbfbdca8e, 0x3ebb2e05,
	0xbdec50cc, 0xbf46286f, 0xbe5f5f5a, 0xbc779ee8, 0xbe1f1d75, 0x3d5ad29b, 0xbcba8a93, 0x3c373d7c, 0xbdf0f614, 0x3db66a50, 0x40027fba, 0x3e984fcd, 0x3f74f42d, 0xbeb1187d, 0x3f9ff86d, 0x3eccc513, 0x3e8a6862, 0x3c5f2bcf, 0xbd08bfe4, 0xbd374989,
	0x3b2a5039, 0xbf54d25b, 0xbafae2e5, 0xbbe9a222, 0x3c90b0e3, 0x3ec52fc6, 0x3f37b2f6, 0x3e53ec8f, 0xbd4729fc, 0x3f2e951b, 0xbfe0dbef, 0xbbd03c27, 0x3dca9e31, 0x3f7cae13, 0x3c8cb4ad, 0x3ff84778, 0xbd94fb1a, 0xbed5c261, 0x3c12e83c, 0xbf8342af,
	0xbeadb62b, 0xbfe56eb9, 0xbfe86a2c, 0xc00be904, 0xc0108815, 0x3d78cdb0, 0x3e06040c, 0x3deaad2c, 0x3de7e138, 0xbefd114a, 0xbfedcd61, 0xbf398cab, 0xbfc9acd6, 0x3d9ca1f3, 0xc004452f, 0xbf52d1db, 0xbfb15489, 0x3df6ecdf, 0xbfa8b734, 0x3e8c2f87,
	0x3f4b87a7, 0xbf12e28a, 0xbf0151e3, 0x3e9fc4af, 0xbb1d164d, 0xbf324d3c, 0xbf82a5b6, 0xbf495497, 0x3eb41afc, 0xbdd418e9, 0x3e4a3797, 0x3e33965d, 0xbf29b558, 0x3e2ad5f1, 0x3e57cf5b, 0xbf4569c7, 0xbe100c02, 0xbf82b092, 0x3e6435e9, 0x3cd4759d,
	0x3c9a2e99, 0x3f8ac5aa, 0x400bc0e0, 0x3d1b3291, 0x3fa11a28, 0xbe3bdee2, 0xbcc47c0e, 0xbe933222, 0xbd89dfc4, 0xbe2b24e6, 0x3d3f67fe, 0xba98392a, 0xbd61c84e, 0xbe3f798b, 0x3f160ca5, 0x3f872e98, 0x3d88d04b, 0xbf7e3982, 0x3cc00e8c, 0xbc05953a,
	0x3e5e2015, 0xbf3f5d7f, 0xbfd249b2, 0xbd1c499a, 0xbe03ac69, 0x3e9099ff, 0x3e68fd29, 0xbeaac9a0, 0xbc9cc565, 0xbe1d0fdf, 0x3f99e6e7, 0x3f096349, 0xbefd8604, 0x3ec68eb5, 0x3ec049b9, 0xbf953c53, 0xbdef6b99, 0xbe03e5ee, 0x3c882d71, 0x3e859889,
	0x3c6a437a, 0xbf7b3f88, 0xbf259285, 0xbd5b1d41, 0xbe8d3184, 0x3dd6eb41, 0x3ef6b115, 0xbe4c300e, 0xbca07304, 0xbe4b54a5, 0x3f13fbdd, 0xbd92497b, 0x3de381d0, 0xbe72fbf9, 0x3f8583ca, 0x3f9a10d3, 0xbdc90d77, 0x3f3d7171, 0xbdb90013, 0x3f9c0d4c,
	0xbf7c570a, 0x3fa6980f, 0x3fafc611, 0xbee4f82f, 0x3f245dea, 0x3d99f159, 0x3e57582b, 0xbd8bf436, 0x3e9d5bdb, 0xbe5e18f9, 0x3da3bfc8, 0x3d9e4e3c, 0x3d83115d, 0x3f3a0ced, 0xbf0c3838, 0xbe8cf638, 0x3d92b46f, 0xbcde8af9, 0xbe886ae8, 0xbf6abb4c,
	0xbff369c8, 0xbf7abd07, 0xbeaf9784, 0x3d7ffe65, 0xbf62538c, 0xbed337ed, 0x3e5e61d7, 0xbeeb6990, 0xc01fffea, 0x3e95aa32, 0xbf39933b, 0x3d19c456, 0xbc269874, 0xc01cf25b, 0x3ea5d4f3, 0x3f2d5695, 0xbe6e41f5, 0xbfc86e9b, 0xbf7f9a7a, 0xbfdfc1a8,
	0xba57b9b7, 0x3fc8ec28, 0xbea037dc, 0x3d6612ec, 0x3e0528ea, 0xbc0a1ad3, 0xbd782dd0, 0xbc8206c6, 0xbd6f33f4, 0xbdcdedcb, 0xbe1517b7, 0xbebf115e, 0x3f0f61d6, 0xbefc0aae, 0xbf97fa7a, 0xbfc799bc, 0x3fa3c8ae, 0xbcb5f5ab, 0x3d014478, 0xbf763c40,
	0xbf59d39c, 0x3f2d98e9, 0x3d5cc53b, 0xbdd29f66, 0x3cc4de55, 0x3d3021af, 0x3f15ad40, 0xbe57d051, 0x3e28422f, 0xbdf2b303, 0x3f4d3072, 0x3f19db54, 0x3db1812e, 0xbda3340e, 0x3f1d890b, 0x3fb2abeb, 0xbc1f3291, 0xbd86867b, 0xbf00d3f6, 0xbf73a2cc,
	0x3f85311a, 0xbf13b889, 0xbc88003d, 0x3da5606a, 0x3c350619, 0xbe0c6752, 0x3d212479, 0xbddda855, 0x3f438093, 0xbdad907a, 0xbf04f8a8, 0xbdf28254, 0xbfa11f15, 0x3ebaa436, 0xbda93e20, 0xbe53ad6b, 0xbd3e9aa6, 0x3ef0fe1b, 0x3dfdcc83, 0x3f79c777,
	0xbf89d0ee, 0xbefed680, 0x3d954b23, 0xbfc54ae8, 0x3d6e4b4e, 0x3e401ade, 0x3e80e29c, 0x3f115a1c, 0xbcaa67e8, 0xbca4301b, 0xbc68b845, 0xbfa33fbb, 0xbec25da2, 0x3effe507, 0xbf799309, 0xbea0fd30, 0xbf08264b, 0x3e828a19, 0xbe5aadfd, 0x3d223b02,
	0x3d79befe, 0x3fb7bb7a, 0x3f3c98e5, 0xbe84fdcc, 0x3e5e5f10, 0xbe65a699, 0xbfbcee61, 0x3d88639d, 0xbf3b85a8, 0xbd961d72, 0x3eaa6f4a, 0xbe8820e8, 0xbe80637c, 0x3e0e33fd, 0x3eb86427, 0xbf92e468, 0xbec65dc8, 0x3e897a97, 0x3db6caf5, 0x3f93a1c8,
	0x3f4e7ffc, 0xbf0607ad, 0xbf566119, 0x3e64867a, 0xbd4c6793, 0xbe625ac5, 0x3f0c81bb, 0xbef44be8, 0x3f2a8cfb, 0xbd685a0f, 0xbe811f00, 0xbabfdb6e, 0xbdd0a260, 0xbc2c32d1, 0x3f15689c, 0x3fb20619, 0xbe1ab85d, 0xbeadbdd6, 0x3d64fcde, 0x3d2d7eff,
	0xbf7d4dae, 0x3f346cbc, 0x3dd62182, 0xbf5e1493, 0x3c617436, 0x3e02ace4, 0x3e614784, 0xbf4297a7, 0x3ea00264, 0xbf59adbb, 0x3e14af1d, 0x3e178887, 0x3d39a3ab, 0xbd9dec90, 0xbf566995, 0xbe9310e1, 0x3df013f8, 0x3e0d6f0e, 0xbfe5f65b, 0xbf279823,
	0xbc2de193, 0x3f976158, 0x3fe23af7, 0x3d3346bb, 0x3fd5a4a5, 0xbe9602a6, 0xbfae1d7d, 0x3e7114d4, 0xbdeeb5bd, 0xbe42b4d6, 0x3dcf4f4b, 0xbd3e3cef, 0xbe15d2d7, 0xbdc7a1ee, 0x3e4fcd76, 0xbf47ca75, 0x3e3945a6, 0xbf130de0, 0x3ce0cbf2, 0x3f099d70,
	0x3e392c86, 0x3f8e3ce4, 0x3c30fb29, 0xbc8ce1ec, 0xbce7438a, 0xbd430b3f, 0xbd85d52e, 0xbde15eef, 0x3d5907f9, 0x3e4c417d, 0x3ff216e4, 0x3f7c714c, 0x3b8003c9, 0x3d9d96ef, 0x3f1f33fc, 0xbf3cb2c6, 0xbddf34f5, 0x3eea9aa0, 0x3c8a92dd, 0x3f0b1820
};

#endif /* WEIGHTS_HIDDEN_LAYER_1_TO_HIDDEN_LAYER_2_H */
